#version: 0.2
t h
i n
th e</w>
a n
i n</w>
y o
e a
o u
i t
yo u</w>
m e</w>
o n
e r</w>
an d</w>
i t</w>
l i
l l</w>
e r
t o</w>
in g</w>
a t</w>
s t
o n</w>
i g
w h
e d</w>
k e</w>
m y</w>
s h
c a
o w</w>
c k</w>
e s</w>
i m</w>
i s</w>
th e
r o
m a
o r
e e
g o
u s
w a
l o
e n
l a
n ig
e t</w>
th at</w>
r a
c h
v e</w>
yo u
o r</w>
li ke</w>
nig g
a r
b u
b a
r e
n ow</w>
w it
t i
e n</w>
t s</w>
c k
o f</w>
r i
e v
wit h</w>
l l
u p</w>
c o
f u
c h</w>
l e</w>
ou t</w>
a ll</w>
a s</w>
you r</w>
h o
r ea
t t
on t</w>
s e</w>
g et</w>
w e</w>
s a
f or</w>
go t</w>
s t</w>
h t</w>
d i
h a
d o
the y</w>
l d</w>
t a
b o
b e</w>
c e</w>
d ont</w>
s e
th is</w>
bu t</w>
m o
a in
s s</w>
u n
nigg a</w>
us t</w>
it s</w>
t o
n o
s o
ain t</w>
s o</w>
on e</w>
k now</w>
b e
n e
p p
i ll</w>
u r
l e
nigg as</w>
er e</w>
s i
wh en</w>
b it
d a
n o</w>
m i
j ust</w>
p a
an t</w>
th a
i r
f a
wh at</w>
sh it</w>
t r
w n</w>
d e</w>
ig ht</w>
us e</w>
s p
er s</w>
ou g
n a</w>
d s</w>
h ea
m e
sh e</w>
l y</w>
y ea
wa s</w>
d o</w>
ca use</w>
i f</w>
p o
ev er</w>
t e
ou n
d y</w>
p u
f ro
bit ch</w>
yea h</w>
fu ck</w>
ba ck</w>
e y</w>
fro m</w>
h er</w>
g o</w>
fu ck
se e</w>
ca n</w>
m on
lo o
g a
b y</w>
ma n</w>
t e</w>
w or
h e</w>
o o
tha ts</w>
e m</w>
k in</w>
oug h</w>
b out</w>
t h</w>
i d</w>
p la
ee n</w>
r u
l ea
the m</w>
f f</w>
d e
ev er
s u
st a
k ing</w>
or e</w>
g i
ee p</w>
ma ke</w>
do wn</w>
th er</w>
m a</w>
y s</w>
a l
ou ld</w>
en t</w>
n a
p i
th ing</w>
w an
h ow</w>
so me</w>
y a</w>
ti me</w>
q u
o ff</w>
the n</w>
n ever</w>
w e
g e
g e</w>
oun d</w>
sa y</w>
g s</w>
th in
no t</w>
in e</w>
w i
wa y</w>
c ant</w>
g u
f ee
mon ey</w>
k i
lo ve</w>
co me</w>
l u
t y</w>
the se</w>
r e</w>
in d</w>
s h</w>
s s
r ight</w>
b i
wan na</w>
th r
l et</w>
li f
p ro
ll y</w>
f i
ta ke</w>
wh ere</w>
t er</w>
c u
p e</w>
co m
t ur
y o</w>
o d</w>
ta l
tt a</w>
t ed</w>
w ant</w>
v i
wh o</w>
l d
k eep</w>
da y</w>
c on
th er
h e
l ow</w>
a bout</w>
ti on</w>
p s</w>
te ll</w>
bo dy</w>
on g</w>
pu t</w>
sh o
y all</w>
ha ve</w>
h is</w>
u s</w>
b la
g ir
g r
tt er</w>
t ch</w>
st o
ne ed</w>
ba by</w>
d u
lif e</w>
st r
f or
b een</w>
c t</w>
it t
a ss</w>
st ill</w>
ar e</w>
tr y
so me
p e
n t</w>
a n</w>
h ere</w>
ck s</w>
ne w</w>
u h</w>
rea l</w>
en d</w>
v er</w>
ever y
ch es</w>
l s</w>
gi ve</w>
go tta</w>
m ore</w>
thr ough</w>
ha d</w>
m b
f e
s c
t w
h it</w>
g on</w>
o p
b r
loo k</w>
ev en</w>
d ea
t ra
h im</w>
d er</w>
b ea
r s</w>
p ar
b ro
wh i
p re
thin k</w>
m u
ch e
to o</w>
h ar
ge tt
st ar
m s</w>
wh y</w>
an g</w>
ca ll</w>
pp in</w>
t ri
m p
c ra
fee l</w>
ch i
c i
m es</w>
ou r</w>
a l</w>
j a
si de</w>
c ou
it e</w>
s mo
fuck in</w>
r ed</w>
sa id</w>
c e
t in</w>
you re</w>
hea r
gir l</w>
ll in</w>
tha n</w>
an g
c ould</w>
b rea
r y</w>
wh o
e x
bit ches</w>
o h</w>
v er
bi g</w>
m an
l f</w>
bo y</w>
n i
o ther</w>
i r</w>
mo ther
b le</w>
u g
go od</w>
ever y</w>
l es</w>
o ver</w>
w ea
a s
sh a
on s</w>
f ir
ga me</w>
w ill</w>
h ig
be tter</w>
hea d</w>
v in</w>
ar ound</w>
g ra
on ly</w>
i m
b lo
li g
wh a
str ee
th ere</w>
d ro
p h
it y</w>
t ing</w>
y in</w>
c lo
s on</w>
ti l</w>
m in
bla ck</w>
st i
a c
tw o</w>
f r
un d
oug ht</w>
rea lly</w>
li ve</w>
w o
k s</w>
wa l
s y</w>
ch a
go d</w>
f f
l itt
v ing</w>
s in
s k
y ing</w>
re e</w>
f ore</w>
litt le</w>
p er
har d</w>
ou s</w>
sto p</w>
f ri
ma de</w>
m p</w>
f in
you n
st ra
k no
w s</w>
th in</w>
j u
tr u
ll s</w>
ru n</w>
j e
tr y</w>
fa ce</w>
pp ed</w>
an d
pla y</w>
hig h</w>
i ma</w>
wor ld</w>
f t</w>
o k</w>
da m
b l
i l</w>
y es</w>
ho es</w>
z y</w>
ll ing</w>
to ld</w>
di d</w>
j o
m ind</w>
d r
sh ow</w>
p us
h i
c or
s ur
di e</w>
wa ys</w>
sta y</w>
d a</w>
f o
h u
ra p</w>
n u
l la
s l
z e</w>
mother fuck
ba d</w>
g er</w>
sa me</w>
nig ht</w>
whi le</w>
pe op
d one</w>
youn g</w>
tal k</w>
be fore</w>
b ra
w r
k ed</w>
dam n</w>
t er
g on
h ou
c la
o m</w>
we ll</w>
wa tch</w>
ca me</w>
an s</w>
w ould</w>
w ont</w>
l in</w>
gett in</w>
ck ed</w>
who le</w>
p er</w>
v e
se lf</w>
peop le</w>
lea ve</w>
try na</w>
l ing</w>
ch o
sp e
na me</w>
le ts</w>
mb er</w>
a m</w>
l li
gon na</w>
n ing</w>
to p</w>
ri de</w>
b le
m ea
st u
ch an
ca r
t ea
tur n</w>
f lo
ma r
us ed</w>
d ing</w>
rea dy</w>
e ss</w>
t ch
h y
d ed</w>
ck in</w>
m m
l ong</w>
a f
lo t</w>
fir st</w>
c ri
ho ld</w>
hea r</w>
sh oo
m ight</w>
ll ed</w>
i ve</w>
s ed</w>
l an
ho od</w>
s ou
y e
ho me</w>
r un
al ways</w>
ll a</w>
d in</w>
d ri
pp ing</w>
s si
c ro
v es</w>
co o
pu ll</w>
ig h
mu ch</w>
w ee
wha ts</w>
c s</w>
ea t</w>
fuck ing</w>
c li
st and</w>
lig ht</w>
ho t</w>
y e</w>
in to</w>
ga in</w>
wh ite</w>
an ds</w>
ld nt</w>
g g
f la
it i
di ck</w>
pus sy</w>
st e
n in</w>
f oo
s er
le ss</w>
hou se</w>
an other</w>
l a</w>
st er</w>
po p</w>
ro ll</w>
s li
im ma</w>
th ough</w>
m or
i ce</w>
l or
ss ed</w>
en ds</w>
k es</w>
w in</w>
dro p</w>
ho mi
v a
bea t</w>
c lu
s ca
d rea
smo ke</w>
l in
che ck</w>
c r
gett ing</w>
a gain</w>
w in
mea n</w>
sh ould</w>
i c</w>
an k</w>
wor k</w>
thin gs</w>
en ce</w>
every thing</w>
k ill</w>
ti mes</w>
m ent</w>
la st</w>
qu i
stree ts</w>
n ed</w>
blo ck</w>
a d
wa r
ha te</w>
w it</w>
x t</w>
n er</w>
gu n</w>
n y</w>
a y</w>
bu r
und er
o ld</w>
every body</w>
li l</w>
le ft</w>
a way</w>
tur e</w>
ea r
m en
br ing</w>
b low</w>
b b
c ity</w>
tal kin</w>
p ri
stra ight</w>
a d</w>
l ine</w>
li st
be st</w>
g one</w>
p le</w>
f ly</w>
b loo
k e
e yes</w>
v o
ro ck</w>
go ing</w>
wal k</w>
h a</w>
s een</w>
he ll</w>
o wn</w>
h ey</w>
f ind</w>
d ra
m en</w>
thr ow</w>
no thing</w>
bo o
t ers</w>
w ere</w>
l t</w>
ll ow</w>
c oun
a h</w>
m er
b or
re w</w>
t on
h o</w>
n e</w>
some thing</w>
f li
star t</w>
r hy
p ra
hear t</w>
ca tch</w>
sp o
b ar
th ought</w>
fu ll</w>
ma y
s la
t u
m b</w>
ne xt</w>
mo ve</w>
ther es</w>
an ce</w>
sin ce</w>
fu n
hear d</w>
man y</w>
c es</w>
di d
ll e
on es</w>
be li
th o
loo kin</w>
stree t</w>
go in</w>
h h</w>
p lea
s nt</w>
dea d</w>
w ing</w>
ha pp
cra zy</w>
s ee
ca r</w>
chan ge</w>
l ou
ca sh</w>
h and</w>
as k</w>
dr in
brea k</w>
do pe</w>
d ru
to ok</w>
ch oo
f low</w>
h ts</w>
h uh</w>
w ent</w>
an y
ra pp
e ve</w>
st y
d es</w>
try in</w>
d ou
s wea
m ou
b us
t ou
b en
hu st
ea r</w>
af ter</w>
s et</w>
the ir</w>
bo tt
m y
ck ing</w>
sho t</w>
un k</w>
m ur
m us
t y
mi lli
t ro
sh es</w>
ph one</w>
clu b</w>
b ri
st ri
n s</w>
st or
an y</w>
l y
be cause</w>
m ine</w>
me mber</w>
g ang
loo king</w>
w er</w>
s qu
a y
did nt</w>
cu t</w>
no thin</w>
g in</w>
ma d</w>
st ea
th u
p lu
e l</w>
th ree</w>
we ed</w>
co ld</w>
h ands</w>
in s</w>
sh i
a te</w>
sp ea
wr ong</w>
wor d</w>
mo st</w>
plea se</w>
p ea
beli eve</w>
o k
tal king</w>
en ough</w>
ho pe</w>
b ust</w>
bro ke</w>
or s</w>
s ig
r ound</w>
gir ls</w>
wi th
da ys</w>
d d
pla ce</w>
c an
pa y</w>
v ed</w>
ba b
in side</w>
ug ht</w>
ff er
th ro
h ur
ou t
try ing</w>
c ur
g ang</w>
e l
ba ll</w>
b ang</w>
f e</w>
st a</w>
ma ma</w>
ho p</w>
do lla
ay y</w>
h und
di a
fr ont</w>
sur e</w>
do g</w>
with out</w>
sh or
hea v
fri ends</w>
c lea
re member</w>
no body</w>
g ro
list en</w>
bo ys</w>
a tt
motherfuck er</w>
gu ess</w>
shoo t</w>
in t</w>
c tion</w>
bloo d</w>
s en
com ing</w>
di r
tt y</w>
pa per</w>
g un
fa st</w>
d ar
a pp
lo st</w>
ki ds</w>
ri ch</w>
t en</w>
sp it</w>
h es</w>
p r
p t</w>
s ma
ca l</w>
fu l</w>
com in</w>
lor d</w>
my self</w>
do in</w>
g lo
t en
f re
d er
in gs</w>
cou ldnt</w>
to wn</w>
f all</w>
itt in</w>
f ree</w>
p ur
wa it</w>
s choo
ga ve</w>
re spe
a ct</w>
pla y
c t
par ty</w>
b lu
ar d</w>
t es</w>
h er
cu z</w>
f our</w>
s it</w>
coo l</w>
homi e</w>
sh ed</w>
rea t</w>
mou th</w>
p en
ti ons</w>
d ge</w>
k id</w>
sty le</w>
b ir
ll er</w>
ou ld
s in</w>
dea th</w>
l o</w>
fuck ed</w>
s ing</w>
s ea
di ffer
ha lf</w>
pa in</w>
cra ck</w>
s es</w>
l ed</w>
hund red</w>
op en</w>
k new</w>
do or</w>
d dy</w>
s y
fir e</w>
ss in</w>
you ll</w>
do ing</w>
si ck</w>
pro bab
d eep</w>
d en
un der</w>
probab ly</w>
ti c</w>
ne ss</w>
b ee
z z
un til</w>
r ing</w>
sl eep</w>
s low</w>
si on</w>
g ri
ck et</w>
th ers</w>
wa snt</w>
he l
bu i
fri end</w>
li vin</w>
mus ic</w>
some thin</w>
ro om</w>
p in</w>
fi ve</w>
la te</w>
schoo l</w>
the y
us h</w>
h un
bu y</w>
may be</w>
a lly</w>
m o</w>
star ted</w>
di es</w>
e st</w>
li e</w>
ug h
g en
s n
f le
sho ts</w>
s na
pi c
tru e</w>
dia mon
sa yin</w>
pro ble
re ss</w>
w on
tho se</w>
p or
fa mi
mo m
re st</w>
ba g</w>
b et</w>
com p
we l
t a</w>
l on
go ld</w>
cou ple</w>
pea ce</w>
bu ll
b ig
respe ct</w>
pa ss</w>
run nin</w>
qui ck</w>
ee t</w>
ti ll</w>
c ed</w>
ca re</w>
v en
ma tter</w>
s ong</w>
mother fuckin</w>
w oo
su pp
li ving</w>
fee ling</w>
m in</w>
sou l</w>
l er</w>
b s</w>
i se</w>
h on
s ound</w>
yea rs</w>
some body</w>
h and
ca ught</w>
re cor
g la
ck er</w>
a u
w ed</w>
m on</w>
m ust</w>
sc rea
c y</w>
ty pe</w>
in ess</w>
iti on</w>
m ed</w>
mi c</w>
la y</w>
hi p</w>
p lan
f l
wa it
plu s</w>
differ ent</w>
fa ke</w>
wa ke</w>
wi sh</w>
spo t</w>
sti ck</w>
k in
t to</w>
s wa
par t</w>
pa id</w>
d ev
t in
st ed</w>
a ir</w>
ste p</w>
t wi
mp in</w>
oo h</w>
a g
ss ing</w>
sta r</w>
wa tch
c rea
pi e
p an
gun s</w>
ki ck</w>
rapp ers</w>
tri ed</w>
se ll</w>
on ce</w>
wa ter</w>
under stand</w>
milli on</w>
al ready</w>
tr ust</w>
si x</w>
na h</w>
lea r
ssi on</w>
g le</w>
ou ldnt</w>
clo se</w>
a tion</w>
f ight</w>
di s
be ing</w>
dou ble</w>
tou ch</w>
b ought</w>
a ge</w>
ur e</w>
sh ine</w>
ti es</w>
wa r</w>
tt in</w>
f rea
a t
un t</w>
c le</w>
lo se</w>
fee lin</w>
r ow</w>
swea r</w>
bra in</w>
k er</w>
g he
ok ay</w>
fami ly</w>
tea m</w>
cha in</w>
co ps</w>
s pa
mm er</w>
te st</w>
smo king</w>
hel p</w>
ou s
motherfuck ers</w>
drin k</w>
b oun
ar y</w>
s or
gr een</w>
d ough</w>
ri st</w>
al one</w>
st ru
h ind</w>
ch ar
mi ss</w>
s on
k y</w>
min u
drea m</w>
ta l</w>
ma kin</w>
m ing</w>
gr ound</w>
sa ying</w>
be hind</w>
m i</w>
bus iness</w>
wor ds</w>
l it</w>
ch in</w>
tru th</w>
flo or</w>
ck y</w>
hea t</w>
ha ters</w>
en ty</w>
c rew</w>
lig hts</w>
bro ther</w>
fee t</w>
ss es</w>
s wit
l ev
blu e</w>
gang sta</w>
sh ould
ri din</w>
we st</w>
fre sh</w>
mur der</w>
p es</w>
c re
fa r</w>
pp er</w>
s end</w>
p ing</w>
a st</w>
ton ight</w>
mom ma</w>
po li
th ir
ge ts</w>
u m</w>
an i
sha ke</w>
0 0</w>
wha t
smo kin</w>
ne ck</w>
ca se</w>
s wee
bor n</w>
n ine</w>
yea r</w>
ba ck
l and</w>
s mi
go es</w>
thu g</w>
for ever</w>
c a</w>
st in</w>
ni ce</w>
nu mber</w>
i es</w>
whi p</w>
ghe tto</w>
pi ck</w>
fo l
dir ty</w>
bee f</w>
ck e
pla yin</w>
spea k</w>
dri ve</w>
t un
st e</w>
ro llin</w>
d ance</w>
th es</w>
stor y</w>
sk y</w>
dolla r</w>
run ning</w>
ju mp</w>
rea d</w>
ma king</w>
wo men</w>
c ts</w>
cri b</w>
pa st</w>
u p
bo ss</w>
gu e</w>
to ge
sa w</w>
f at</w>
some times</w>
s me
diamon ds</w>
toge ther</w>
fi f
so on</w>
ou tta</w>
c ted</w>
k ee
thin kin</w>
o ver
thin king</w>
for get</w>
s ent</w>
da ddy</w>
clo thes</w>
su s</w>
rhy me</w>
g ing</w>
com es</w>
an a</w>
hur t</w>
b it</w>
ca rs</w>
f ig
c ru
en e
pre tty</w>
what ever</w>
n one</w>
pie ce</w>
ch ang
it u
fr ee
th i
f ound</w>
sta te</w>
coun t</w>
m r</w>
n ee
str ong</w>
pra y</w>
cou r
dea l</w>
y a
en s</w>
m eet</w>
oun ds</w>
p l
ch ee
e ly</w>
an e</w>
dd le</w>
tra ck</w>
won der</w>
s a</w>
pi sto
sp end</w>
dru gs</w>
to day</w>
c er
o d
an ge</w>
rea son</w>
d ig
ch ing</w>
st and
w ouldnt</w>
bo x</w>
in ter
pic ture</w>
k en</w>
wan ted</w>
fa ct</w>
dar k</w>
t on</w>
f it</w>
o s</w>
sca red</w>
pa ck</w>
k ey</w>
ha ir</w>
t ly</w>
s no
e ye</w>
fe w</w>
n in
gr ind</w>
tra p</w>
itt ing</w>
b er
ho ld
wr ite</w>
ly ri
d on</w>
stu ck</w>
s lu
drea ms</w>
bo th</w>
ro ad</w>
se x</w>
r k</w>
sh e
f fi
u hh</w>
th ang</w>
hust le</w>
chi ck</w>
lou d</w>
g as</w>
ci al</w>
mo ther</w>
ma s</w>
ee l</w>
who s</w>
fli p</w>
w et</w>
st er
f o</w>
po wer</w>
po s
sho es</w>
kno wn</w>
b ed</w>
s un
poli ce</w>
je sus</w>
c o</w>
c en
pro mi
sh in</w>
h as</w>
5 0</w>
ra in</w>
n or
foo l</w>
z i
st s</w>
t ight</w>
so l
bur n</w>
you r
th ous
ta in</w>
ma g
ra i
ca l
brea d</w>
qu e
ir e</w>
bu n
d i</w>
4 0</w>
st y</w>
sc en
sha w
your self</w>
se con
fa ther</w>
cke ts</w>
po ppin</w>
g y</w>
h or
kno ck</w>
any thing</w>
y ed</w>
f ine</w>
ye a</w>
t re
minu te</w>
k ers</w>
po int</w>
pus h</w>
ki ss</w>
homi es</w>
ch ed</w>
ta kin</w>
m et</w>
boun ce</w>
wi ld</w>
ver se</w>
to o
con tro
co p</w>
shaw ty</w>
qu e</w>
ug h</w>
gra b</w>
ca lled</w>
b ank</w>
ra w</w>
tur ned</w>
shor ty</w>
le y</w>
ra n</w>
yo rk</w>
supp o
rhy mes</w>
n ers</w>
m it</w>
fun ny</w>
pla n</w>
c ti
g ers</w>
tha fuck
b an
ho o
d in
it h</w>
sh u
p id</w>
s wi
ri ed</w>
st ers</w>
cor ner</w>
c ry</w>
co ke</w>
k a
du mb</w>
ta king</w>
st re
st ing</w>
b li
proble m</w>
pa ra
ea sy</w>
wea r</w>
rapp er</w>
s w
fin na</w>
f ra
g g</w>
che st</w>
heav en</w>
sl ee
ca ts</w>
ra ther</w>
z ed</w>
su ck</w>
glo ck</w>
thous and</w>
re la
fo llow</w>
y et</w>
m my</w>
ho me
g re
for e
su n</w>
sou th</w>
d ent</w>
bu m</w>
bu lle
pi mp</w>
i s
da w
al s</w>
kin da</w>
la r</w>
tt le</w>
i ther</w>
bull shit</w>
p in
g ar
th a</w>
al right</w>
swee t</w>
t or
si l
sh ing</w>
que sti
ha ha</w>
s ki
tur es</w>
el se</w>
ri ding</w>
wa ll</w>
ba llin</w>
woo d</w>
po cket</w>
bo om</w>
sc ri
clea n</w>
do m</w>
pla ying</w>
di o</w>
h ang</w>
a m
tt ing</w>
de st</w>
ti red</w>
la dy</w>
ch ill</w>
sme ll</w>
g a</w>
lo r</w>
fe ct</w>
ver y</w>
shi p</w>
wi fe</w>
pisto l</w>
cli p</w>
ain s</w>
e mp
be l</w>
wee k</w>
ser ve</w>
ra y</w>
par t
motherfuck ing</w>
g reat</w>
du de</w>
ma y</w>
ang in</w>
li qu
d ly</w>
secon d</w>
war d</w>
g es</w>
p un
stu pid</w>
k ind</w>
d ow</w>
they re</w>
th ank</w>
t ll</w>
i ous</w>
a r</w>
mor ning</w>
ja il</w>
t t</w>
men ts</w>
ti on
recor d</w>
p ed</w>
ain st</w>
so ld</w>
i sh</w>
jo b</w>
fa me</w>
you rs</w>
st in
s co
dou b
w rist</w>
out side</w>
li es</w>
suppo sed</w>
sa ve</w>
ag ainst</w>
do gg</w>
la r
ba r</w>
la ter</w>
c c
sig n</w>
a live</w>
ma in</w>
tri p</w>
clea r</w>
mi ddle</w>
heav y</w>
ta ble</w>
a b
t een</w>
mo vi
fa v
sh ar
s k</w>
ki lled</w>
sc ra
bea u
t reat</w>
dolla rs</w>
bui ld
an ge
la dies</w>
dev il</w>
ben z</w>
ci de</w>
we ight</w>
t ee
ho e</w>
lear n</w>
f ear</w>
z one</w>
bro thers</w>
bott om</w>
gi e</w>
chang ed</w>
c ent</w>
bl unt</w>
every day</w>
big ger</w>
su ck
bla st</w>
sur vi
sp i
c ing</w>
pp ers</w>
br ought</w>
0 s</w>
ou r
fr on
pa c</w>
k it
wo ah</w>
gro wn</w>
wor th</w>
swit ch</w>
ro lling</w>
l ous</w>
a ye</w>
l ers</w>
r r
ll ers</w>
tw enty</w>
sor ry</w>
gu y</w>
do es</w>
vi e
wo man</w>
mer i
lea n</w>
h h
mi x
dru g</w>
ac tin</w>
a ble</w>
ca ke</w>
s eat</w>
mo vin</w>
er y</w>
tw een</w>
mi es</w>
lin gs</w>
happ en
1 0</w>
sti c</w>
ugh ter</w>
tri ppin</w>
g ho
dr unk</w>
th an
rea ch</w>
cla ss</w>
co lle
sol di
promi se</w>
lo ck</w>
ea ch</w>
b ru
a li
o p</w>
ho lla</w>
bu ck</w>
e ither</w>
tha tll</w>
p ound</w>
c in</w>
g rea
happ y</w>
cla p</w>
sp ir
lo cked</w>
s ittin</w>
d an
frea k</w>
foo d</w>
ex c
liqu or</w>
gi vin</w>
scen e</w>
ro o
po ckets</w>
contro l</w>
be tween</w>
ig n</w>
d ers</w>
pre si
f igh
mp ed</w>
di ed</w>
k ne
th s</w>
ta pe</w>
smi le</w>
jo h
shu t</w>
su per</w>
sh in
o b
man s</w>
c mon</w>
t it
re n</w>
ir t</w>
ss y</w>
te llin</w>
ro r</w>
me di
a meri
sta ck</w>
i st</w>
i ls</w>
ti e</w>
qu ar
n er
gg in</w>
it ch</w>
tr ou
c at</w>
vi o
t or</w>
gr ow</w>
ta ste</w>
tru ck</w>
a ted</w>
w ind</w>
si ppin</w>
z ing</w>
un i
ja ck</w>
li ck</w>
ver sa
hand le</w>
cro w
h en
e f</w>
daw g</w>
dra ma</w>
mp le</w>
j er
dir t</w>
cha m
lea d</w>
chan ce</w>
bri ck</w>
st ro
o l</w>
bulle ts</w>
b on
qu it</w>
kno ws</w>
proble ms</w>
pro je
p en</w>
st un
pla in</w>
lig h
wal kin</w>
star s</w>
l un
g in
gla ss</w>
su per
par k</w>
cro ss</w>
yo ne</w>
fe ll</w>
ee ze</w>
bott le</w>
b one</w>
ma kes</w>
ki ller</w>
ear th</w>
w ers</w>
f er
b by</w>
mp ing</w>
ch u
ch as
s kin</w>
list en
i e</w>
s sa
ro a
chi ld</w>
su ch</w>
go d
sa fe</w>
mi x</w>
co ast</w>
ce i
war ds</w>
su mmer</w>
he lla</w>
2 0</w>
ke pt</w>
fu n</w>
m ps</w>
m me</w>
p lo
j ea
la w</w>
bo o</w>
ne igh
a ma
wait ing</w>
bo mb</w>
per fect</w>
gu cc
chi ck
bott les</w>
ea st</w>
doub t</w>
m ous</w>
me ans</w>
an s
you ve</w>
tr a</w>
mb le</w>
fin ger</w>
squ ad</w>
ke ys</w>
bar s</w>
ro bb
cli ck</w>
ro ss</w>
mi r
hi de</w>
bea ts</w>
gr ou
bri cks</w>
every where</w>
ye llow</w>
le g
fe lt</w>
chee se</w>
stea d</w>
ro cks</w>
je ans</w>
ct or</w>
ch ains</w>
ca p
c up</w>
t ar
cha se</w>
b ands</w>
fu ture</w>
ff in</w>
so ft</w>
o pp
hea ds</w>
p aint</w>
k a</w>
gucc i</w>
gg ed</w>
d ys</w>
ho ll
some one</w>
al bum</w>
ca ine</w>
to mor
play er</w>
gi c</w>
l it
her es</w>
ga mes</w>
ma c</w>
wel come</w>
ha ving</w>
ti p</w>
ki llin</w>
ha tin</w>
ton gue</w>
no se</w>
d re</w>
att a
tr ig
lin es</w>
b ye</w>
shor t</w>
a a
win dow</w>
ang er</w>
s even</w>
wor ry</w>
sno op</w>
rai sed</w>
sp ar
re pre
cu s</w>
tr unk</w>
c ir
co st</w>
ch ro
sta cks</w>
b ow</w>
wee zy</w>
p ee
o c
gr and</w>
ch r
p o</w>
ll e</w>
ev il</w>
in stead</w>
ar m</w>
sma ll</w>
ri p</w>
ch ur
ch ri
lla s</w>
see ms</w>
d re
watch in</w>
wal king</w>
oug hts</w>
ene mies</w>
ch er</w>
brea th</w>
sen se</w>
fol ks</w>
ch ea
whi ch</w>
tri ck</w>
sta ge</w>
r in
chi cks</w>
sh out</w>
br and</w>
stru gg
d on
st ore</w>
ro of</w>
kit ch
v en</w>
sp lit</w>
pr in
m m</w>
pu lled</w>
ho le</w>
bl ind</w>
ll o</w>
k o
th oughts</w>
wea k</w>
te lling</w>
s lo
d j</w>
beau ti
p our</w>
tea rs</w>
bro wn</w>
se x
they ll</w>
a i
go o
gi ving</w>
do gs</w>
or t</w>
ni ck
fig ure</w>
te ch</w>
e ight</w>
cri me</w>
ca llin</w>
ri se</w>
st ress</w>
co ck</w>
o ffi
sli de</w>
movi e</w>
do ors</w>
t v</w>
se llin</w>
r en
bo ok</w>
thu gs</w>
ja y</w>
ca tion</w>
tomor row</w>
ld er</w>
au to
sc i
ne ws</w>
kitch en</w>
in s
du des</w>
w ro
f an
brea the</w>
ad di
watch ing</w>
mo m</w>
dro pped</w>
a head</w>
chi ld
wro te</w>
spa ce</w>
pre ss</w>
e le
mo ving</w>
loo se</w>
gho st</w>
ca re
s er</w>
p a</w>
gu ys</w>
sho ws</w>
ra ppin</w>
fe ed</w>
bi es</w>
s ear
s ons</w>
wait in</w>
ha vin</w>
d at</w>
ph i
f ea
blo win</w>
beauti ful</w>
tch a</w>
me an
it ll</w>
i i
sn ea
fi sh</w>
en g
be in</w>
ti ve</w>
pro du
ru bb
ca lly</w>
j un
fee ls</w>
bun ch</w>
twi ce</w>
pur ple</w>
ge st</w>
fee lings</w>
mi ssion</w>
u ce</w>
pu mp</w>
p unk</w>
b er</w>
vi sion</w>
crea m</w>
mo de
chro me</w>
ru les</w>
bl un
pro of</w>
te ly</w>
ma j
di g</w>
tha fuckin</w>
si p</w>
li ps</w>
la ugh</w>
happ en</w>
c er</w>
cou pe</w>
ch a</w>
ca mer
att en
w l</w>
rea li
fe ds</w>
k ush</w>
gr y</w>
er ed</w>
d ress</w>
wa y
thafuck a</w>
a bo
thi ck</w>
co ver</w>
stand ing</w>
play ed</w>
ju ice</w>
gu i
g ne</w>
br in
z in</w>
neigh bor
da te</w>
ce ss</w>
pan ts</w>
pa ti
f ans</w>
trou ble</w>
la ugh
chur ch</w>
ch i</w>
mo ment</w>
stu ff</w>
so sa</w>
ro ckin</w>
le an
gr ee
ta ught</w>
plan e</w>
ci ous</w>
v a</w>
wi de</w>
ac ting</w>
wor king</w>
ma ster</w>
ee ls</w>
ch e</w>
n as</w>
ca lling</w>
b ill</w>
stea dy</w>
ro se</w>
nu ts</w>
lan e</w>
lea st</w>
i on</w>
y er</w>
i mag
pri ce</w>
fif ty</w>
sin gle</w>
bla me</w>
m cs</w>
car ry</w>
hold in</w>
pi mpin</w>
ne y</w>
mir ror</w>
fun k</w>
wo o</w>
sho p</w>
recor ds</w>
qu een</w>
f ill</w>
bull et</w>
z z</w>
r ee
com m
as ked</w>
nig hts</w>
m c</w>
k ni
st side</w>
th y</w>
s ni
e sca
vo l
kne es</w>
e ld</w>
de li
wo ke</w>
see m</w>
bea st</w>
v in
pp y</w>
mb ers</w>
com pe
bu tt
mi sta
son gs</w>
who a</w>
s itting</w>
po se</w>
ex tra</w>
ca p</w>
bo dys</w>
bit e</w>
c y
v ers</w>
or der</w>
fi ed</w>
al ong</w>
tre es</w>
o ff
la w
le dge</w>
j a</w>
b ble</w>
v y</w>
sp ent</w>
lev el</w>
spe ci
sh irt</w>
questi on</w>
li st</w>
je we
drin kin</w>
to m</w>
g at</w>
con ne
s che
ra ise</w>
tee th</w>
fav or
screa m</w>
hig her</w>
hig h
gr in
d em</w>
blo wing</w>
atten tion</w>
ang ing</w>
y ard</w>
me ss</w>
di sa
ki lling</w>
lon ely</w>
do w
bus y</w>
ar ti
ba gs</w>
b a</w>
wr it
n on</w>
l lo
bu s</w>
m er</w>
ce ll</w>
ra ce</w>
sp ray</w>
sha dy</w>
pi lls</w>
foo t</w>
fa mous</w>
co caine</w>
b and</w>
tea ch</w>
it ed</w>
har der</w>
tt i</w>
t ough</w>
po t</w>
crow d</w>
te mp
r ange</w>
ev en
w re
vi ce</w>
ve st</w>
go ds</w>
build ing</w>
wa ck</w>
su it</w>
su b
ma ck</w>
any body</w>
wor kin</w>
wh er
vio l
pre ss
fin ish</w>
c l
3 0</w>
mo ms</w>
le ss
ju dge</w>
ir s</w>
g ed</w>
cli que</w>
bro ad</w>
bir d</w>
1 2</w>
u e</w>
g or
re li
pu bli
flo ws</w>
ear ly</w>
bl in
re p</w>
child ren</w>
stri p</w>
s mar
na sty</w>
n ear</w>
co lor</w>
w ould
lo ad</w>
j et</w>
fu lly</w>
fore ign</w>
pp a</w>
gr and
vie w</w>
thro at</w>
she ll</w>
ki llers</w>
d ee
clo ck</w>
bu stin</w>
you d</w>
s ight</w>
l m</w>
ba lls</w>
pla te</w>
e f
cour t</w>
ba ttle</w>
ba d
on a
mi d
favor ite</w>
w ra
maj or</w>
e ther</w>
abo ve</w>
go od
re p
le st</w>
igh ty</w>
lou is</w>
k en
ea ting</w>
tea r</w>
ta tt
lyri cs</w>
la me</w>
l ity</w>
g rew</w>
co ok</w>
yo n
pro te
for m</w>
co g
cho pper</w>
cham pa
si ze</w>
pla tin
mb s</w>
ly n</w>
ac ross</w>
spe ed</w>
ma tic</w>
ins ane</w>
fa n</w>
pl enty</w>
ja m</w>
da ughter</w>
sp in
de mon
co a
ro b</w>
wal ked</w>
fa ir</w>
du ck</w>
1 00</w>
wea p
swea t</w>
platin um</w>
no ti
la id</w>
je wel
wa ve</w>
p eep</w>
la bel</w>
it al</w>
hon ey</w>
holl y
h at</w>
te x
sh its</w>
ra ge</w>
st em</w>
h its</w>
tun e</w>
lo a
i mp
hun gry</w>
hold ing</w>
br o</w>
un less</w>
min i
l ds</w>
happen ed</w>
a p</w>
ra ps</w>
ki e</w>
di me</w>
ssa ge</w>
pic tures</w>
lear ned</w>
f ou
way ne</w>
tri ple</w>
pla ya</w>
ar t</w>
thir ty</w>
t ree</w>
mur der
ho ok</w>
can dy</w>
mo ves</w>
me ant</w>
diamon d</w>
bo y
wor st</w>
swa g</w>
spe cial</w>
screa min</w>
lif e
f ed</w>
gri p</w>
ever yone</w>
champa gne</w>
s an
s it
quar ter</w>
sh er</w>
p sy
si x
si ons</w>
h hh</w>
ex pe
ben t
ma l</w>
ble w</w>
u l
str y</w>
mi cro
hea ded</w>
ca te</w>
bro ken</w>
zz le</w>
ja ck
fig ur
fa ith</w>
bea ch</w>
wor se</w>
sy stem</w>
ro lls</w>
fi x</w>
a k</w>
pu ff</w>
p ers</w>
nig h
a yo</w>
lif es</w>
gir l
f lu
f en
ce le
bra ins</w>
a im</w>
on ic</w>
lon ger</w>
ar ms</w>
r ings</w>
press ure</w>
la ce</w>
in du
for d</w>
ce pt</w>
bui ld</w>
bir ds</w>
ma ri
ma ge</w>
l yin</w>
h ittin</w>
bo ard</w>
blun ts</w>
en ts</w>
ve l</w>
th rew</w>
boo ty</w>
to es</w>
st oo
loo ked</w>
w ine</w>
lli e</w>
smo o
stra pped</w>
ch rist</w>
bui lt</w>
vi ct
sto ma
po l
ac tion</w>
vo ice</w>
st one</w>
ee zy</w>
ca ted</w>
fin ally</w>
chick en</w>
k ar
wa ste</w>
le gs</w>
gi mme</w>
cou ld
bi e</w>
b right</w>
ta n</w>
fle x
ro lled</w>
joh n</w>
na med</w>
en ti
sp en
r ush</w>
r i</w>
go ts</w>
de ci
sk in
sa ys</w>
ki d
for ce</w>
cho p</w>
wh ether</w>
st on</w>
po or</w>
clo sed</w>
bro ok
qu ee
po pped</w>
emp ty</w>
thro win</w>
t rea
na mes</w>
me mor
l en
d y
ro y
fi eld</w>
bo dies</w>
won der
st eel</w>
se y</w>
ho ly</w>
choo se</w>
chi llin</w>
c les</w>
ble ss</w>
be come</w>
va te</w>
screa ming</w>
repre sent</w>
po w
f light</w>
ug ly</w>
sp read</w>
sp ittin</w>
ph an
he llo</w>
e x</w>
th ug
sli ck</w>
sa va
bi lls</w>
trig ger</w>
ra id</w>
comp le
thir d</w>
men tal</w>
cour se</w>
oo oo
may ne</w>
fin gers</w>
f y</w>
r ough</w>
pos ition</w>
ki lla</w>
j ig
v al
st as</w>
da d</w>
blo cks</w>
m ee
ch or
shoo tin</w>
fa ces</w>
cla im</w>
pi e</w>
co de</w>
p ho
jea lous</w>
co lla
as kin</w>
w ledge</w>
v ir
mo on</w>
swa llow</w>
squ eeze</w>
ra pping</w>
cal i</w>
stra p</w>
oug h
for give</w>
su c
sli m</w>
l ying</w>
fa de</w>
ca lif
brook lyn</w>
al most</w>
y y
tt e</w>
sn it
god damn</w>
g er
di ce</w>
w ow</w>
to ast</w>
str ange</w>
se lling</w>
s ll</w>
fo ld</w>
chi ef</w>
sur pri
sa ck</w>
mo b</w>
jewe ls</w>
in ed</w>
fa m</w>
f er</w>
pi ss</w>
ma gic</w>
fle x</w>
survi ve</w>
stoma ch</w>
ea tin</w>
t our</w>
lif t</w>
h i</w>
do ctor</w>
d en</w>
s cu
mi ll
ma sk</w>
lo ved</w>
ta kes</w>
stu dio</w>
stand in</w>
bl ing</w>
a ce</w>
2 0
mi s
tch in</w>
strugg le</w>
se l
proje cts</w>
plu g</w>
lo tta</w>
e m
sig ned</w>
po ps</w>
man e</w>
for got</w>
ch in
ble ssed</w>
ra dio</w>
mi ke</w>
fron tin</w>
fr an
t end</w>
s now</w>
r in</w>
o we</w>
j or
g lor
di p</w>
c in
z zy</w>
su cker</w>
ni a</w>
ma th</w>
cro o
calif or
ble ed</w>
a ds</w>
s is</w>
fi ends</w>
er al</w>
do e
chi ps</w>
wan ts</w>
see ing</w>
na ked</w>
i sl
da n</w>
con versa
cla ssi
p it
ga l</w>
l th</w>
bu tt</w>
you s</w>
st ance</w>
re cog
foo ls</w>
fi end</w>
ea rs</w>
bo at</w>
w u</w>
smoo th</w>
po pping</w>
mi cha
ea l</w>
cro wn</w>
bu ry</w>
tra in</w>
presi dent</w>
li ves</w>
i snt</w>
h an
doe snt</w>
di sc
comp ton</w>
ans wer</w>
u lt</w>
sma ck</w>
sa d</w>
re lea
ma te</w>
gg ing</w>
su i
do me</w>
y ah</w>
r at</w>
v an
sp on
nu mbers</w>
n 9
for ty</w>
thro wing</w>
nigh t
ha ting</w>
ba ss</w>
t all</w>
soldi er</w>
ma ll</w>
itu de</w>
it ted</w>
fif th</w>
d ust</w>
cr ee
pa ssed</w>
micha el</w>
lo vin</w>
ch o</w>
or y</w>
mb o</w>
fla me</w>
x i
si mple</w>
ra cks</w>
p ill</w>
me ssage</w>
gu ar
fi lled</w>
wh en
un cle</w>
s car
pri son</w>
da l</w>
b es</w>
when ever</w>
h our</w>
da r</w>
should a</w>
sha me</w>
pa ir</w>
lu ck</w>
jo int</w>
gra m</w>
at lan
p ou
de serve</w>
under ground</w>
cou sin</w>
ck le</w>
te l</w>
i ly</w>
din ner</w>
con f
ar e
to e</w>
pu ttin</w>
lea vin</w>
kno win</w>
e mo
cra sh</w>
car d</w>
bo bby</w>
vi de
si des</w>
ig nor
bent ley</w>
ma tch</w>
en ter
b o</w>
colle ge</w>
wit ness</w>
suck ers</w>
sta sh</w>
ona ire</w>
in de
fl at</w>
di re
d ang
sh all</w>
pi pe</w>
ma in
do t</w>
bla ze</w>
ba n</w>
soldi ers</w>
sh ee
d ying</w>
bar ely</w>
o w
t an
re ci
mon ster</w>
ha haha</w>
er a
cal m</w>
bir th
af raid</w>
a w
su e</w>
sp in</w>
sava ge</w>
recog ni
o lder</w>
indu stry</w>
ho l</w>
b les</w>
st an
hust lin</w>
e u
den ti
s wing</w>
r an
o t</w>
na tion</w>
ba y</w>
ba bies</w>
po ol</w>
phan tom</w>
l i</w>
vi be</w>
stea l</w>
jo y</w>
cli ps</w>
califor nia</w>
ri ck</w>
in di
tion al</w>
r ent</w>
p ride</w>
imag ine</w>
girl friend</w>
fa g
con tin
atta ck</w>
v s</w>
publi c</w>
k ha
ha mmer</w>
sk et</w>
si ster</w>
qui et</w>
hi story</w>
fa i
cr iti
sma sh</w>
li sh</w>
g y
a mi</w>
o o</w>
spir it</w>
drin king</w>
clo wn</w>
wa lls</w>
s ounds</w>
mi ssin</w>
kno wledge</w>
1 1</w>
sla p</w>
min ds</w>
bu mp</w>
ange l</w>
wh eel</w>
vi lla
stoo d</w>
rea lest</w>
mi ssing</w>
loo ks</w>
jewel ry</w>
hea d
en ch</w>
bro ads</w>
boo th</w>
pr ou
hust ler</w>
ea se</w>
do o</w>
d it</w>
sp ee
sli p</w>
quee ns</w>
o g</w>
lan ce</w>
k oo
holly wood</w>
h angin</w>
gg y</w>
do ws</w>
dis respect</w>
mo de</w>
h ill</w>
gri ll</w>
ck ers</w>
cho se</w>
tra cks</w>
se cr
pa y
win gs</w>
v ent</w>
some where</w>
iti es</w>
fla sh</w>
du e</w>
co p
any way</w>
mm ers</w>
m ill</w>
la tely</w>
k an
isl and</w>
ho les</w>
ga z
c on</w>
po ssi
plan et</w>
nee ded</w>
ha h</w>
big gie</w>
should ve</w>
fla v
er ous</w>
di ss</w>
cr eep</w>
a po
2 1</w>
smar t</w>
ri ms</w>
reli gi
pro ve</w>
ma i
e ty</w>
milli ons</w>
demon s</w>
c ore</w>
r es</w>
mm in</w>
ju mped</w>
de ser
c ig
z er
y ay</w>
si lly</w>
re si
nee ds</w>
go ld
fl ying</w>
de di
ro cking</w>
i a</w>
hen ne
fun ky</w>
de fin
as king</w>
ni e</w>
mi l
de ck</w>
we stside</w>
sta l</w>
sl ang</w>
ser ious</w>
per son</w>
b end</w>
t ition</w>
t i</w>
nu t</w>
mode l</w>
mm m</w>
kni fe</w>
ex plain</w>
b re
wi se</w>
sea ts</w>
ra ts</w>
kee ps</w>
grea test</w>
exc use</w>
dro ppin</w>
cri min
si ve</w>
igh ts</w>
gra ve</w>
gr an
che cks</w>
can not</w>
twi st</w>
tt ers</w>
ti s
sw er
pu llin</w>
pr o</w>
pla ces</w>
listen ing</w>
d un
d are</w>
tra ffi
sex y</w>
reali ze</w>
on y</w>
lo ving</w>
dea r</w>
de stin
sk e
mi ssed</w>
lo ves</w>
fo c
f ru
us u
up on</w>
ra h</w>
prou d</w>
pol iti
oun ce</w>
fra me</w>
cele bra
lo y
gra bb
gi ft</w>
be yon
sho wed</w>
men tion</w>
gang ster</w>
dr o</w>
chor us</w>
ba star
te e</w>
sig ns</w>
p ig
li mit</w>
lea ving</w>
e qu
c tions</w>
wea ther</w>
shoo ting</w>
se cur
k ings</w>
d ry</w>
ba se
a go</w>
nin a</w>
fol lo
fi st</w>
coun try</w>
tch ed</w>
t one</w>
speci ally</w>
sh are</w>
le x</w>
dre ssed</w>
bl ee
a ll
twi sted</w>
tra pped</w>
ra te</w>
i shed</w>
free ze</w>
fa llin</w>
co lor
wi ld
o thers</w>
in ts</w>
ra l</w>
char ge</w>
smo ked</w>
ma ry</w>
lea ther</w>
d le</w>
a part</w>
te xt</w>
fou l</w>
d yin</w>
ameri ca</w>
no where</w>
go ver
bea m</w>
than gs</w>
si de
secr et</w>
p h</w>
micro phone</w>
mi l</w>
hear t
en er
chr onic</w>
b angin</w>
win ter</w>
per son
p he
min es</w>
mi ami</w>
kee pin</w>
jo ke</w>
g an
compe tition</w>
2 pac</w>
wa ist</w>
sh y</w>
rubb er</w>
mu thafucka</w>
ho tter</w>
gra ss</w>
ba tt
wh eels</w>
v al</w>
stor m</w>
er ing</w>
ch ev
sh a</w>
ha ter</w>
car ter</w>
c lou
wor ried</w>
ta in
t us</w>
n ment</w>
mu l
fo cus</w>
con si
ama zing</w>
war m</w>
sin s</w>
recogni ze</w>
re d
po st</w>
jun gle</w>
i ll
d ence</w>
comp li
st le</w>
p it</w>
minu tes</w>
m c
ene my</w>
ea n</w>
con cer
a ting</w>
ton y</w>
sto pped</w>
should er</w>
see in</w>
lo s</w>
hun n
co at</w>
1 9
st unt</w>
man sion</w>
ma il</w>
leg end</w>
ir on</w>
h in
ba si
t ches</w>
sna tch</w>
per i
mar ried</w>
in te
disa pp
coun tin</w>
camer a</w>
a hh</w>
wh oo
stun tin</w>
ru le</w>
ro le</w>
la h</w>
b in
wee k
u l</w>
mix ed</w>
foc used</w>
brea kin</w>
y up</w>
pa th</w>
mon ths</w>
mo lly</w>
lyri cal</w>
esca pe</w>
cu l
ck a</w>
us ing</w>
u u
tch ing</w>
sho e</w>
sh ouldnt</w>
re mind</w>
ph y
n et</w>
lo gi
i al</w>
hear ts</w>
sla ve</w>
milli onaire</w>
lle st</w>
ct ly</w>
croo ked</w>
chea p</w>
te c</w>
ste ps</w>
neighbor hood</w>
mu thafuckin</w>
dow n
d it
cou ch</w>
be gin
s itu
mar k</w>
lar ge</w>
gro o
bo x
shoo k</w>
ma mi</w>
g ger</w>
en d
questi ons</w>
p se</w>
ba il</w>
y ers</w>
tri cks</w>
sh o</w>
oun ded</w>
m oun
har d
ga ts</w>
den ts</w>
d r</w>
be lt</w>
a tin</w>
tra sh</w>
p ha
hu man</w>
u r</w>
spar k</w>
ra in
p ounds</w>
o hh</w>
lli on</w>
in tro
cho ppa</w>
t ors</w>
t ant</w>
rela x</w>
p ain
n ar
me tal</w>
ki ckin</w>
imp or
dr ank</w>
ad mit</w>
t at</w>
ra ri</w>
pa ssion</w>
le g</w>
bad dest</w>
traffi c</w>
s m
opp o
no ise</w>
dri ving</w>
dd en</w>
b ound</w>
r ounds</w>
pi es</w>
dang erous</w>
auto matic</w>
pl ans</w>
na w</w>
f ar
bru h</w>
be lly</w>
whi ps</w>
ta lly</w>
ja mes</w>
a ir
who ever</w>
ho li
every time</w>
dru m</w>
da sh</w>
cu be</w>
bu ms</w>
wa re</w>
scri p
ki cks</w>
ho pin</w>
fa cts</w>
at or</w>
kno cked</w>
ho ping</w>
gra de</w>
ba l</w>
att itude</w>
viol ence</w>
sn itch</w>
sa l
re bel</w>
pro lly</w>
nu ttin</w>
la p</w>
cir cle</w>
bo b</w>
b ones</w>
ameri can</w>
si pping</w>
pra cti
on ed</w>
la yin</w>
good bye</w>
differ ence</w>
co de
bla ck
ta tion</w>
re gu
por s
m ighty</w>
do e</w>
ce p
atlan ta</w>
sa uce</w>
pa ge</w>
ig n
hunn id</w>
gi ven</w>
ga n</w>
fan ta
ch ers</w>
boo ts</w>
be came</w>
w ns</w>
v an</w>
sta yed</w>
che d
ch er
bu cks</w>
al ty</w>
sci ence</w>
r y
po le</w>
phy si
k i</w>
f fe
back wards</w>
ba ge</w>
a ight</w>
pin k</w>
le tter</w>
e mb
ca sket</w>
b and
sty les</w>
st ones</w>
glo cks</w>
co ver
af ford</w>
weap on</w>
pri vate</w>
li ar</w>
hou rs</w>
cei ling</w>
car ds</w>
app roa
t wel
slee pin</w>
scra tch</w>
qui ck
nor th</w>
mo ti
hy pe</w>
glor y</w>
birth day</w>
z en</w>
prin ce</w>
mu h
fle sh</w>
fa shi
de sig
b ou
wea ring</w>
w on</w>
tri pping</w>
tr on</w>
qu o
intro du
happ ens</w>
dri p</w>
un it</w>
sui cide</w>
sho win</w>
s ite</w>
po i
mea t</w>
gold en</w>
br a</w>
a ver
1 0
rea lity</w>
mo tion</w>
mm ing</w>
ma gaz
jor dan</w>
ho llow</w>
bu bble</w>
pie ces</w>
pi c</w>
gra ce</w>
d ition</w>
cu m</w>
brea k
un g</w>
tur ning</w>
sm ith</w>
shee ts</w>
ri ches</w>
play ers</w>
mon th</w>
la s</w>
fin ished</w>
com mon</w>
bir th</w>
beli ev
be gin</w>
al so</w>
vo lu
so da</w>
pre tend</w>
mo od</w>
wi cked</w>
spea king</w>
proje ct</w>
mi cs</w>
loa ded</w>
kno wing</w>
c lin
us s</w>
st are</w>
part ner</w>
o f
mar tin</w>
less on</w>
gla d</w>
gang stas</w>
er a</w>
vide o</w>
ste ppin</w>
pu tting</w>
ga r</w>
fa lling</w>
classi c</w>
b in</w>
y uh</w>
win dows</w>
re ds</w>
lo sing</w>
ju mpin</w>
joh n
da ily</w>
bar re
th or
te ch
str on
slee ping</w>
skin ny</w>
may ba
man i
lu te</w>
lu cky</w>
j s</w>
addi cted</w>
sp ra
shoo ters</w>
sea son</w>
mor nin</w>
a w</w>
ro c</w>
qu ite</w>
pu shin</w>
pi ssed</w>
hust lers</w>
bu mpin</w>
brea king</w>
af ter
wher es</w>
ve ment</w>
v ani
re main</w>
r ou
pow der</w>
ma x</w>
do c</w>
da y
chas in</w>
bea r</w>
aver age</w>
w rap</w>
tex as</w>
sc or
r a</w>
ja w</w>
fa il</w>
clo set</w>
big gest</w>
al co
tu ally</w>
suc cess</w>
par ed</w>
gu ap</w>
ff ed</w>
ev i
el ev
code ine</w>
ar s</w>
sp la
p rea
figh ting</w>
di v
va tion</w>
s us
ne l</w>
ki cked</w>
4 5</w>
thafuck as</w>
so f
in vol
hon e
c and
ti cs</w>
sho t
se mi</w>
po sed</w>
ma le</w>
l on</w>
e ye
chi e</w>
ched dar</w>
ye p</w>
t ana</w>
se a</w>
pur pose</w>
p y
mer cy</w>
l and
cho ke</w>
ar my</w>
wa sh</w>
sc r
pla stic</w>
h anging</w>
ba lling</w>
zer o</w>
re spon
na tu
f in</w>
c lean
bu tter</w>
v ous</w>
ss up</w>
sc rew</w>
ri der</w>
it ty</w>
dra wers</w>
ce ss
religi on</w>
cre dit</w>
bi ble</w>
tr an
so ber</w>
pa pers</w>
li ed</w>
gra ms</w>
dea ler</w>
cu te</w>
clou ds</w>
bri dge</w>
ber ry</w>
an o
wi pe</w>
twel ve</w>
to te</w>
sear ch</w>
s m</w>
ro llie</w>
li d</w>
la ying</w>
in no
eng th</w>
blo wn</w>
bb in</w>
vi sit</w>
squ are</w>
sca le</w>
oc ean</w>
loo t</w>
l eep</w>
for ward</w>
fa ded</w>
do o
cti ve</w>
as leep</w>
ta ge</w>
sto le</w>
mo thafuckin</w>
k rs</w>
in v
de stro
chri st
bon d</w>
possi ble</w>
or g
of ten</w>
li ved</w>
itt en</w>
h mm</w>
fa ult</w>
app le</w>
sli ppin</w>
ru b</w>
re ven
ph ones</w>
m ers</w>
listen in</w>
le e</w>
hor se</w>
homi cide</w>
fl yin</w>
ener gy</w>
cr ush</w>
cla im
s win
s coo
par don</w>
nu mb</w>
mo thers</w>
gu tter</w>
fu r
e specially</w>
e s
clo ser</w>
ca lls</w>
bloo d
ba se</w>
ad d</w>
ta y
ta g</w>
scr een</w>
mo ved</w>
gover nment</w>
gor i
wi thin</w>
v is</w>
tch u</w>
ma p</w>
k le</w>
it a</w>
chri sti
ba cks</w>
ve gas</w>
tou ched</w>
see ds</w>
pre ssed</w>
henne ssy</w>
figur es</w>
fa l
dri vin</w>
cr ying</w>
t ig
ski p</w>
sa tan</w>
li p</w>
ge or
cer tain</w>
care er</w>
bur ning</w>
wa n</w>
spo ts</w>
sp ort</w>
si r</w>
ro pe</w>
ho tel</w>
cha ir</w>
a c</w>
tri ll</w>
ru gged</w>
noti ce</w>
att ra
stri ke</w>
re turn</w>
pun ch</w>
produ ct</w>
no te</w>
j im
for th</w>
ex plo
cri p</w>
as sho
would ve</w>
u ps</w>
tun e
tt en</w>
thug gin</w>
tea cher</w>
t ang</w>
spea kin</w>
mi les</w>
hon or</w>
fa ster</w>
de uce</w>
cur se</w>
ch ine</w>
b at</w>
tho u</w>
shin ing</w>
ma chine</w>
fr ench</w>
expe ct</w>
every bodys</w>
drin ks</w>
crimin al</w>
cli mb</w>
youn g
ta il</w>
so lo</w>
sna p</w>
sea s</w>
ra z
pro per</w>
par ents</w>
mayba ch</w>
fi l
d ness</w>
coun ting</w>
brin gin</w>
ti ed</w>
thr one</w>
than ks</w>
th ri
ste pped</w>
s oun
la be
f loo
dee per</w>
1 6</w>
so ci
sha des</w>
or ig
fun eral</w>
flex in</w>
fashi on</w>
cu sto
beyon d</w>
sou ls</w>
por t</w>
hund reds</w>
ea th</w>
bu sta</w>
an yone</w>
t ent</w>
la tion</w>
k im</w>
gu ard</w>
g lo</w>
di mes</w>
chas ing</w>
tit ties</w>
n9 ne</w>
ye ster
whi ppin</w>
t ank</w>
sto ve</w>
sc re
qu a
n on
goo se</w>
er in</w>
as sa
you th</w>
tru ly</w>
si mp
si es</w>
pi cked</w>
pa lm</w>
pa cked</w>
mo thafucka</w>
hon est</w>
g low</w>
con tra
c ting</w>
bloo dy</w>
tune chi</w>
t ball</w>
se ed</w>
pors che</w>
lo ver</w>
le mme</w>
e go</w>
desig ner</w>
chr is</w>
too l</w>
so cks</w>
se para
on al</w>
no wa
d less</w>
co s</w>
bu ll</w>
a fri
ye llin</w>
wi f
wh it
week end</w>
sur r
stre tch</w>
sp or
shar p</w>
k ane</w>
guar an
frea ks</w>
figh tin</w>
dev ils</w>
ban k
situ ation</w>
se ction</w>
l ur
im pa
gra du
do s</w>
co l
wre ck</w>
ti ps</w>
ssi ve</w>
si ck
shin in</w>
pu lling</w>
pisto ls</w>
ner vous</w>
lun ch</w>
lo sin</w>
impor tant</w>
hur ts</w>
h itting</w>
free dom</w>
arti st</w>
al bums</w>
we ve</w>
sna kes</w>
sk i</w>
re min
re gar
ma l
lea der</w>
ju ana</w>
hur ry</w>
fli ppin</w>
de sp
ce des</w>
would a</w>
usu ally</w>
too ls</w>
s en</w>
pa ul</w>
he sit
har dest</w>
fuck er</w>
fa te</w>
ex ac
e e</w>
could ve</w>
v id</w>
sou th
sen t
nowa days</w>
nick el</w>
le m</w>
jack son</w>
invol ved</w>
in ten
i ds</w>
her o</w>
dro ps</w>
conne ct</w>
vi lle</w>
stor ies</w>
snea k</w>
qu es</w>
ous ly</w>
mom my</w>
le tting</w>
la ws</w>
ha vent</w>
flav or</w>
exac tly</w>
er ation</w>
writ ing</w>
s le
hi lls</w>
fag got</w>
c ans</w>
sta tus</w>
pre me</w>
op en
in ch</w>
ga te</w>
frea ky</w>
flo ss</w>
dea lers</w>
cor ners</w>
conversa tion</w>
c ine</w>
butt on</w>
ani mal</w>
suck a</w>
sna ke</w>
sa ved</w>
r is</w>
pati ence</w>
fuck s</w>
camer as</w>
tt ed</w>
stri ctly</w>
sla ughter</w>
pa n</w>
en ded</w>
du mp</w>
cover ed</w>
com for
si an</w>
sa lute</w>
p lot</w>
jo e</w>
flo at</w>
er ate</w>
cr yin</w>
al lah</w>
a de</w>
wor e</w>
sil ence</w>
ser vice</w>
s nu
mista kes</w>
kan ye</w>
deser t</w>
ar ds</w>
sto mp</w>
sho wing</w>
pa d</w>
kno ckin</w>
je ct</w>
go ons</w>
ea gle</w>
c d</w>
prote ct</w>
mon key</w>
ju sti
did dy</w>
cho ice</w>
ca ses</w>
brin ging</w>
wra pped</w>
fo es</w>
christ mas</w>
chev y</w>
z a</w>
ti re</w>
supp ort</w>
sto ppin</w>
slu gs</w>
s and</w>
mer cedes</w>
le x
la mes</w>
ki es</w>
ho mes</w>
do min
di ble</w>
con ta
bu ried</w>
wor lds</w>
ti p
sun day</w>
peop les</w>
orig in
home y</w>
fi x
yester day</w>
should ers</w>
la ck</w>
igh s</w>
hu g</w>
ff le</w>
con fe
y yo</w>
sho wer</w>
rep eat</w>
pro vi
ou se</w>
lo gy</w>
le ttin</w>
ju mping</w>
i us</w>
en tly</w>
de f</w>
tt est</w>
t ons</w>
su gar</w>
sel ves</w>
practi ce</w>
pra ying</w>
po sted</w>
nick i</w>
mon tana</w>
her o
fla g</w>
barre l</w>
z el</w>
z a
too th</w>
ta pes</w>
neighbor s</w>
natu ral</w>
ll et</w>
j ones</w>
ho ller</w>
ha w
bu ying</w>
bi z</w>
sta tion</w>
st ly</w>
poi son</w>
po e
life style</w>
f s</w>
cho ppers</w>
b or</w>
ang ers</w>
tra de</w>
str ength</w>
she lls</w>
r t</w>
per cent</w>
ni es</w>
m or</w>
ga tes</w>
ff y</w>
dro ve</w>
dra w</w>
ai yyo</w>
tur ns</w>
th reat</w>
pati ent</w>
mari juana</w>
law yer</w>
ko da
ja cket</w>
home boy</w>
ff s</w>
er i
em ce
cor re
v o</w>
u d</w>
spea kers</w>
lo ts</w>
he ld</w>
ex cept</w>
ce ll
ca di
bur nin</w>
wa ves</w>
u n</w>
t le
medi cine</w>
mea l</w>
clea r
c loud</w>
t le</w>
sa la
ro ck
pra ise</w>
mix tape</w>
mi ster</w>
grou p</w>
grin din</w>
ca u
tw er
sca ry</w>
ri d</w>
pro fe
laugh in</w>
ho w
de fen
4 s</w>
ye ll</w>
wea ve</w>
villa in</w>
s at</w>
rhy th
re wind</w>
qui cker</w>
p et</w>
mill i</w>
mi ssi
ma mas</w>
le ans</w>
ho v</w>
disapp ear</w>
co cked</w>
br eeze</w>
1 5</w>
wea rin</w>
ver ses</w>
th rea
spen din</w>
ou rs</w>
oo oh</w>
ho pe
h us
du mmy</w>
dan cing</w>
z o
wr itten</w>
tar get</w>
sha med</w>
se l</w>
p ow</w>
koda k</w>
can e</w>
win ning</w>
ta ins</w>
sti cks</w>
st ant</w>
sou r
ski lls</w>
relea se</w>
gre y</w>
de f
con fi
swa gger</w>
surpri se</w>
sk rr
sha kin</w>
pur e</w>
po lo</w>
pan ties</w>
pa tron</w>
hun g</w>
g n
cre te</w>
comp any</w>
boo ks</w>
zi p</w>
z i</w>
z er</w>
ye lling</w>
wha tchu</w>
shi ft</w>
pa use</w>
laugh ing</w>
i ces</w>
ho sp
gu e
g ree</w>
co le</w>
ce ed</w>
cadi lla
c tin</w>
sp ill</w>
sent ence</w>
rou te</w>
kin g
ja mai
groo ve</w>
e igh
e c
clu bs</w>
base ment</w>
ac count</w>
sa tis
ru de</w>
pu shing</w>
pe tty</w>
mi ser
mi le</w>
ma r</w>
kee ping</w>
k ness</w>
dro wn</w>
cru ise</w>
con crete</w>
cham pi
cap tain</w>
8 0</w>
ur y</w>
su preme</w>
st itu
ri es</w>
regu lar</w>
movi es</w>
lun gs</w>
ig h</w>
h eels</w>
gree dy</w>
de tro
d is</w>
coun ty</w>
could a</w>
che f</w>
am oun
sto ck</w>
sta yin</w>
sca rs</w>
repre sen
jim my</w>
hear in</w>
di vi
d ding</w>
ci st</w>
chi ca
bla de</w>
wher ever</w>
re f
mode ls</w>
j eezy</w>
ha ted</w>
h s</w>
cr is</w>
be dro
a k
8 0s</w>
stre ssed</w>
se ttle</w>
pe e</w>
gla sses</w>
gi ves</w>
dan cin</w>
ca tchin</w>
br on
bo wl</w>
wi z</w>
vict im</w>
tur nin</w>
to ps</w>
star ts</w>
st rea
sin k</w>
sco pe</w>
re ppin</w>
pro fit</w>
pre pared</w>
lli es</w>
kne e</w>
j i
in stru
in k</w>
cho co
break fast</w>
bastar d</w>
wild in</w>
whi sp
wh ee
tur nt</w>
ti cket</w>
tay lor</w>
sc ore</w>
roy ce</w>
re volu
na ture</w>
mon e
l ust</w>
ko be</w>
it ive</w>
fri day</w>
fol k</w>
en ter</w>
de b
co wards</w>
app reci
2 5</w>
woo ds</w>
tho t</w>
sun shine</w>
star tin</w>
s word</w>
s and
no tes</w>
ma ster
j eep</w>
fro ze</w>
fe llas</w>
de p
a im
we e</w>
us es</w>
s wo
ne ck
n na</w>
mother fuck</w>
in es</w>
in a</w>
ig ns</w>
hen ny</w>
da mage</w>
a shamed</w>
wee ks</w>
up town</w>
sta ckin</w>
spen ding</w>
sil ent</w>
re fle
mu d</w>
me th</w>
hear ing</w>
ha m</w>
ga y</w>
g ee
detro it</w>
chica go</w>
ca ge</w>
ba ma</w>
wo lf</w>
offi ce</w>
ho pped</w>
hard core</w>
h all</w>
g ear</w>
ff ing</w>
f lo</w>
en ding</w>
di sh</w>
da m</w>
d anger</w>
ange ls</w>
an ts</w>
u t</w>
tra vel</w>
si sters</w>
shoo ter</w>
regar dless</w>
pre s
pra yin</w>
p eel</w>
mean ing</w>
jig ga</w>
for tune</w>
f i</w>
e se</w>
ct ors</w>
cop y</w>
conf used</w>
assho le</w>
wi shin</w>
us in</w>
ri cky</w>
ra g</w>
j our
figur ed</w>
dri ppin</w>
co pped</w>
ba ller</w>
b ent</w>
a tch</w>
wor ks</w>
wo l
tri ps</w>
tra ppin</w>
st ur
reven ge</w>
r igh
mil k</w>
j o</w>
hou ston</w>
fe lla</w>
e h</w>
do ggy</w>
do d
cr y
ad vice</w>
a ts</w>
a lar
wh ore</w>
ta x
spo ke</w>
sin ging</w>
shi ps</w>
rhyth m</w>
pro per
offi cial</w>
memor ies</w>
lo ss</w>
grabb ed</w>
color s</w>
boy friend</w>
2 4</w>
ya yo</w>
wi s
w w
pa ck
la ke</w>
high way</w>
gu ts</w>
ff er</w>
cul ture</w>
cree pin</w>
bus h</w>
begin ning</w>
ba thro
wif ey</w>
try nna</w>
to ss</w>
t wit
secur ity</w>
sca r</w>
s even
rela tion
ra ck</w>
or leans</w>
mista ke</w>
john ny</w>
in ing</w>
f our
ex ten
dea lin</w>
cu ts</w>
build in</w>
bu yin</w>
bu d
be side</w>
b ly</w>
wor ld
viol ent</w>
star ting</w>
sor t</w>
shot gun</w>
sc an
p her</w>
ligh t
contin ue</w>
c ca</w>
bu d</w>
bu cket</w>
b en</w>
tr o</w>
ta p</w>
re ly</w>
memor y</w>
ex p
ea stside</w>
co ffin</w>
wi g</w>
wea lth</w>
ve ins</w>
th ighs</w>
sta b</w>
si mi
re ver
promi sed</w>
po in
part ment</w>
o l
mi d</w>
iti ons</w>
du ckin</w>
denti al</w>
che ckin</w>
care ful</w>
ba l
v et</w>
st ee
so lid</w>
sa cri
re me
r up</w>
ph ony</w>
n is</w>
har dly</w>
h m</w>
gar bage</w>
en joy</w>
be low</w>
any where</w>
wha ck</w>
sla m</w>
six teen</w>
scri pt</w>
re c
r d</w>
main tain</w>
la ced</w>
hh hh</w>
h it
g les</w>
ble ss
be e</w>
a tions</w>
thir sty</w>
ri ous</w>
pi mps</w>
pa cks</w>
ou ts</w>
ne w
ho ttest</w>
har lem</w>
gra in</w>
g li
fuck ers</w>
er t</w>
du es</w>
du b</w>
ch y</w>
celebra te</w>
blo ws</w>
approa ch</w>
un ity</w>
tu cked</w>
sy rup</w>
star ing</w>
s our</w>
presi dents</w>
murder ed</w>
de ce
cur b</w>
coo kin</w>
co lo
ca m
blu es</w>
z e
win ner</w>
sw im</w>
sta l
sp itting</w>
south side</w>
glo be</w>
fi re
do se</w>
clu e</w>
be long</w>
0 00</w>
tra ve
sacri fi
roo ms</w>
par ts</w>
o il</w>
koo l</w>
jer sey</w>
grou pie</w>
fron ting</w>
f itted</w>
dro pping</w>
den y</w>
d ges</w>
colle ct</w>
bulle t
bla zin</w>
ther e
th less</w>
stri pes</w>
ro ver</w>
pri me</w>
li on</w>
i llest</w>
fla mes</w>
e ighty</w>
de cide</w>
cru i
chu ck</w>
chi lling</w>
cha ll
ch al
sh ittin</w>
pur p</w>
par ano
origin al</w>
on to</w>
lea ves</w>
cla ck</w>
choco late</w>
c ea
b i</w>
ar ri
a la
wis dom</w>
us ion</w>
skrr t</w>
robb ed</w>
pur se</w>
po pu
ph y</w>
me ta
lea gue</w>
ignor ant</w>
ga rage</w>
cen tra
bu zz
bu sting</w>
al mighty</w>
ya ch
wa x</w>
versa ce</w>
stre ssin</w>
star in</w>
sour ce</w>
pre sent</w>
na l</w>
mi ra
dea dly</w>
comp are</w>
bo ther</w>
bedro om</w>
a ve</w>
vi ous</w>
tatt ed</w>
ta li
ri ppin</w>
magaz ine</w>
du m</w>
d die</w>
ck o</w>
be g</w>
we ir
watch ed</w>
surr ounded</w>
su ckin</w>
slu t</w>
raz or</w>
ll en</w>
itu al</w>
hea lth</w>
gro wing</w>
er o
ear l</w>
christi an</w>
chan ces</w>
cen se</w>
c ers</w>
bless ings</w>
be ll</w>
b anging</w>
ar i
ad van
z oo
ter ri
t is</w>
re g
pre gn
lan gu
tu ck</w>
tatt oo
su g
sa m</w>
pra da</w>
ho ppin</w>
fran k
fer rari</w>
win nin</w>
ve ly</w>
va cation</w>
under stood</w>
tch et</w>
sle pt</w>
si ble</w>
sea n</w>
sa p</w>
phi lly</w>
l ty</w>
j an
i cy</w>
enter tain
der ed</w>
ble ssing</w>
bathro om</w>
wonder ing</w>
who se</w>
tt on</w>
ti cal</w>
stro ke</w>
sta irs</w>
slu g</w>
sk u
sa le</w>
r us
pen it
na ils</w>
m mi
li m
ir ts</w>
gen ius</w>
ex pen
ex a
e du
chick ens</w>
c run
bullet proof</w>
app la
wor ked</w>
w ire</w>
to mmy</w>
se ssion</w>
re tar
ra re</w>
on i
loy al</w>
l ts</w>
ir ed</w>
hosp ital</w>
fli ck</w>
da me</w>
bo p</w>
be er</w>
ba e</w>
vict ory</w>
tra y</w>
ser vin</w>
out law</w>
k nu
in ner</w>
in cre
hu mble</w>
ho l
gen tle
fal se</w>
bab y
an ti
ti ck</w>
sho pping</w>
sha pe</w>
pi llow</w>
person al</w>
penit enti
ne ga
ne cess
mus cle</w>
mp er</w>
ma tt
lea k</w>
l lig
ki ssin</w>
gi f
ex e
di sp
cadilla c</w>
a id</w>
sti cky</w>
ree fer</w>
re gi
m bo
le ga
ir es</w>
ha ll
ha le</w>
drea min</w>
dea ling</w>
cla n</w>
ch ain
ca ls</w>
b id</w>
an sw
wal lo
tech ni
snit ches</w>
scar face</w>
par king</w>
na p</w>
ho ok
h im
coa ch</w>
chall en
al ity</w>
ac tually</w>
vi cious</w>
simp ly</w>
pro mo
over seas</w>
lo cal</w>
li kes</w>
fru it</w>
du tch</w>
di sea
d der</w>
cra ckin</w>
boo gie</w>
x an
tr ans
surpri sed</w>
spe ll</w>
se qu
plan es</w>
pa ss
pa ce</w>
oppo site</w>
ma tion</w>
hou ses</w>
hi ps</w>
hea ted</w>
ga mb
flo ors</w>
f ly
ec sta
bla cks</w>
be tta</w>
any more</w>
alco hol</w>
weap ons</w>
vie ws</w>
sta in</w>
spin ning</w>
sk y
pun ks</w>
pu ffin</w>
plo ttin</w>
moun tain</w>
ma ter
ga u
de si
cre ws</w>
ani sh</w>
a shes</w>
wit cha</w>
wa ssup</w>
su es</w>
stron ger</w>
pa yin</w>
on er</w>
o ms</w>
gu es</w>
f oun
e ss
dri ll</w>
di ppin</w>
d man</w>
cy cle</w>
comple te</w>
clo se
ck ey</w>
brea thin</w>
ba lance</w>
19 9
wo p</w>
t igh
sk irt</w>
righ te
rea r</w>
neck lace</w>
me xi
k is</w>
justi ce</w>
ign ore</w>
ha ha
ga ge</w>
g lu
fle w</w>
e ter
destin y</w>
colla r</w>
c us
w ri
vi or</w>
ter min
su me</w>
sc ious</w>
sa int</w>
pi mping</w>
pee ps</w>
mur da</w>
m ma</w>
langu age</w>
inno cent</w>
i led</w>
him self</w>
fri ed</w>
flo wers</w>
du n</w>
ci vi
che mi
bl ed</w>
bi atch</w>
a ven
a mm
ugh ters</w>
tu al</w>
sin gin</w>
re late</w>
pu l
psy cho</w>
pregn ant</w>
ner ve</w>
mi lit
la zy</w>
inde pen
ge ous</w>
gang sters</w>
en vy</w>
du h</w>
destro y</w>
de ca
boy z</w>
wha tcha</w>
up set</w>
tt es</w>
suck as</w>
sk ate</w>
por ch</w>
od ds</w>
mu thafuckas</w>
min k</w>
ll ey</w>
k na
k et</w>
fr ank</w>
dis gu
bu zz</w>
20 0
wh or
u al</w>
su its</w>
sp r
some how</w>
sa les</w>
ri pped</w>
r r</w>
ja h</w>
fli es</w>
fav or</w>
ele c
de gree</w>
ci an</w>
ban ana</w>
ba be</w>
z es</w>
sk ill</w>
pr int</w>
lin k</w>
leg it</w>
l en</w>
jea lou
inter net</w>
ig gy</w>
i or</w>
ear n</w>
de ba
cu ps</w>
brea thing</w>
bloo ds</w>
1 7</w>
ri f
pre ssion</w>
pen ny</w>
mm ed</w>
llo ws</w>
jo bs</w>
incre dible</w>
con scious</w>
co lder</w>
bur nt</w>
basi c</w>
ali ze</w>
tur f</w>
ta x</w>
s wallo
ro w
ri ver</w>
p at</w>
ni ke</w>
my ster
mon o
me l</w>
la n</w>
ki cking</w>
in fin
happen in</w>
gui lty</w>
fa thers</w>
dro w
dig its</w>
de e</w>
ca st</w>
beau ty</w>
z ard</w>
wi shing</w>
tin ted</w>
ti er</w>
ther n</w>
sp ine</w>
sil ver</w>
s wan
par is</w>
mone ys</w>
me ter</w>
m ig
la mb
in ve
hear se</w>
ea si
da ughters</w>
crea ted</w>
cen ter</w>
bu ddy</w>
bo mbs</w>
ang le</w>
to ys</w>
ro man
ra tchet</w>
r it
pres ence</w>
miser y</w>
i ce
fore igns</w>
co ck
brea ks</w>
be lls</w>
tho ts</w>
ta bles</w>
stea k</w>
sa lt</w>
presi dential</w>
pra yer</w>
pla tes</w>
pa ckin</w>
lan es</w>
kar ma</w>
ha il</w>
grand ma</w>
de a</w>
cro ssed</w>
crea te</w>
con qu
cli mb
a vo
a sap</w>
ta ken</w>
st ands</w>
sla y</w>
ri ce</w>
par ties</w>
or ange</w>
n y
jer k</w>
i mage</w>
ge tcha</w>
fli p
fa lls</w>
f are</w>
e mer
dra ke</w>
bi ke</w>
a sses</w>
z o</w>
they d</w>
te le
t ary</w>
sp rin
r on</w>
po ke</w>
pho to
o ps</w>
i ced</w>
flo atin</w>
en ly</w>
ac cept</w>
a mon
wa llet</w>
su mm
spi ra
sp anish</w>
snea kers</w>
sl angin</w>
retar ded</w>
ra bb
op in
n or</w>
men tally</w>
ho o</w>
fi c</w>
fa ce
dr ought</w>
di al</w>
dedi cated</w>
com plain</w>
ce ment</w>
ca li
ba ke</w>
ar gu
separa te</w>
part ners</w>
pa pa</w>
p y</w>
o clock</w>
o bama</w>
mo on
mal co
ma rs</w>
jo in</w>
equ al</w>
e dge</w>
dire ction</w>
can cer</w>
apo logi
ai yo</w>
a wake</w>
wol ves</w>
vani lla</w>
spin nin</w>
re ign</w>
quick ly</w>
physi cal</w>
penitenti ary</w>
o bie</w>
me dit
k u
ha l
h ug
ev a</w>
e lo
daw gs</w>
cu ban</w>
cher ry</w>
cha p
ben ch</w>
bea tin</w>
bar k</w>
ar ra
wa rs</w>
tal ent</w>
t ts</w>
spir itual</w>
slo w
sche me</w>
relea sed</w>
o le</w>
ma re</w>
inte llig
hea ter</w>
for ced</w>
figh ts</w>
do pe
di stance</w>
cir cu
blin k</w>
b ster</w>
at i</w>
zz i</w>
th ful</w>
sol ve</w>
sear ching</w>
pu mpin</w>
per fe
p our
ni kes</w>
mb er
la mbo</w>
ii ii
go als</w>
geor ge</w>
fli pped</w>
fe male</w>
fe e</w>
eng ine</w>
el even</w>
e ls</w>
dar y</w>
d ur
comfor table</w>
ban ks</w>
an o</w>
amoun t</w>
tal ks</w>
tal ked</w>
swit ched</w>
snit chin</w>
sha king</w>
sc ent</w>
night mare</w>
ma sh</w>
lon don</w>
ligh ter</w>
in va
he h</w>
f its</w>
ex i
e qui
d as</w>
coo king</w>
ck les</w>
bru ce</w>
bo i</w>
after math</w>
1 8</w>
to i
to a
ti res</w>
thr u</w>
sy n
stan tly</w>
slo ppy</w>
simi lar</w>
se cre
re ha
re ck
ra pe</w>
mo s</w>
li a</w>
la ted</w>
la b</w>
koo pa</w>
j ane</w>
hust ling</w>
hun ger</w>
gro ve</w>
fri en
en din</w>
da wn</w>
clo wns</w>
cho sen</w>
ca ro
blee ding</w>
y know</w>
ve ter
us e
ther ed</w>
si a</w>
seven teen</w>
ser ving</w>
scoo p</w>
sc o</w>
ref use</w>
pre di
pos se</w>
p are</w>
mar ks</w>
grou pies</w>
for t</w>
every things</w>
de mon</w>
cri ed</w>
br igh
yo r</w>
whor es</w>
tri ce</w>
to y</w>
t its</w>
sto pping</w>
sta ying</w>
soci ety</w>
slow ly</w>
sli ce</w>
pro ceed</w>
pa ying</w>
mus i
k not</w>
jo ints</w>
it es</w>
i do
flo win</w>
flip mode</w>
drea ming</w>
di cu
corre ct</w>
be ans</w>
a sh</w>
whoo p</w>
war ri
twer k</w>
thro wn</w>
su cked</w>
pos itive</w>
p ir
nigg as
n ur
m sayin</w>
it ate</w>
flex ing</w>
e t
da vid</w>
cra cked</w>
ci pa
ch at</w>
c ta
bra in
bo w
ben ja
ar ies</w>
ac ti
y d</w>
w a</w>
v ity</w>
tra pping</w>
sun ny</w>
squ ee
sco tt</w>
pro phe
pour in</w>
p i</w>
open ed</w>
mu st
mo vement</w>
lin s</w>
hoo ds</w>
grin ding</w>
gori lla</w>
go ssi
gi mmi
frien dly</w>
fe der
expen sive</w>
e pi
dra g</w>
deli ver</w>
con do</w>
al lo
wa ter
tw ea
super star</w>
sto ps</w>
sp ring</w>
so a
ser ved</w>
ra ted</w>
pi pes</w>
necess ary</w>
ne ither</w>
haw k</w>
gro win</w>
fli pping</w>
disc us
dar kness</w>
con science</w>
co tton</w>
car pet</w>
ca tching</w>
c tic</w>
bre ed</w>
than k
tha l</w>
str ings</w>
sen ding</w>
rhy ming</w>
pre pare</w>
pou ring</w>
me lt</w>
lev i
lean in</w>
le ys</w>
lamb org
i ons</w>
hoo ked</w>
ha ts</w>
ge on</w>
fin est</w>
con vin
co vers</w>
che cking</w>
ca ta
bl on
are a</w>
appreci ate</w>
writ in</w>
wa sted</w>
to ssed</w>
tal s</w>
stun ting</w>
st or</w>
revolu tion</w>
re cei
plea sure</w>
pin ky</w>
per cs</w>
pack age</w>
malco lm</w>
ex ist</w>
e li
di e
cu t
ber g</w>
bea n</w>
youn gin</w>
world wide</w>
wit ne
weir d</w>
ta gs</w>
se ts</w>
ri sk</w>
rhy min</w>
po ppa</w>
pe ter</w>
par ked</w>
matt ress</w>
li cense</w>
lea f</w>
ki llas</w>
it ely</w>
gu t</w>
gre es</w>
fro zen</w>
do l
de stru
criti cs</w>
bra g</w>
ba th</w>
vo d
u zi</w>
super man</w>
sho ck</w>
sear chin</w>
robb in</w>
re vol
niggas ll</w>
me ssi
ll i</w>
gra ph</w>
fir ed</w>
er y
en ger</w>
dru ms</w>
cra wl</w>
coo chie</w>
ci dal</w>
champi on</w>
ch eat</w>
bro s</w>
ag es</w>
v u
th under</w>
sta tes</w>
slee ve</w>
si cker</w>
see k</w>
secon ds</w>
pan ic</w>
p reach</w>
nega tive</w>
lamborg hin
jo kes</w>
is sues</w>
introdu ce</w>
i da</w>
happen ing</w>
gy m</w>
gau ge</w>
ecsta sy</w>
defin ition</w>
de grees</w>
br ush</w>
answ ers</w>
v ul
ti mate</w>
ten der</w>
tch er</w>
str anger</w>
ro cky</w>
ri ot</w>
re gr
regr et</w>
quo te</w>
ma li
ken dri
is sue</w>
home boys</w>
he st</w>
disea se</w>
da h</w>
cri ps</w>
consi der</w>
car di</w>
br ings</w>
bea ting</w>
ar rest</w>
al i</w>
ad dress</w>
z on
w ig
vi sions</w>
v ance</w>
suppo se</w>
su ffer
re sur
psy cho
pro ps</w>
pi le</w>
oc cu
nin ety</w>
le thal</w>
la c</w>
jealou sy</w>
in flu
g gs</w>
fuck a</w>
ex peri
dig ital</w>
co m</w>
clu tch</w>
cig are
c ough</w>
butt er
bur st</w>
br an
b eep</w>
to pic</w>
spee ch</w>
sha de</w>
righte ous</w>
re mini
re lev
medi a</w>
mater ial</w>
m at</w>
lo bby</w>
ja g</w>
hel ped</w>
ha ze</w>
fe lon
dig gin</w>
d les</w>
cur ren
cra cks</w>
ca s</w>
bur ned</w>
bu ggin</w>
blu e
arti sts</w>
yach t</w>
vod ka</w>
tea chers</w>
te cca</w>
su mmers</w>
sti ckin</w>
sho tty</w>
ri dicu
qu est</w>
phe w</w>
parano id</w>
o x
o tic</w>
labe ls</w>
fun ds</w>
fif teen</w>
fa kin</w>
dis respe
d or
co ward</w>
chan el</w>
blo cka</w>
ag ree</w>
ab use</w>
a a</w>
9 9</w>
wa shed</w>
vi p</w>
twit ter</w>
swer ve</w>
stru ck</w>
sa ke</w>
ro cket</w>
rea ct</w>
ni ck</w>
lou ie</w>
kha lif
kee f</w>
hur tin</w>
hh hh
go tti</w>
go al</w>
foo lish</w>
fami liar</w>
emo tions</w>
do dge</w>
dea ls</w>
cu ff</w>
bu ck
bu bb
b on</w>
an as</w>
a we
tru mp</w>
tr e</w>
te a</w>
ssi ons</w>
s ers</w>
pp as</w>
pi cs</w>
p itch</w>
nee dle</w>
mu la</w>
mor s</w>
men ace</w>
ma ss</w>
loy alty</w>
ke lly</w>
k ay</w>
go lf</w>
free style</w>
era se</w>
dra gon</w>
di cks</w>
conta ct</w>
con stantly</w>
co cky</w>
chi p</w>
can non</w>
br on</w>
bi lly</w>
b ing</w>
whi stle</w>
we dding</w>
va lley</w>
tt er
toi let</w>
tit le</w>
swi mming</w>
sh eep</w>
s ever
s cho
ro cked</w>
re v
le tters</w>
k ur
j i</w>
hun t</w>
ha mmers</w>
gra y</w>
gi ven
fla cko</w>
f lor
defin itely</w>
deci sion</w>
cor por
cor n</w>
com pu
cl ever</w>
ca ps</w>
bu n</w>
a ware</w>
a men</w>
3 00</w>
2 s</w>
te levi
te ed</w>
stri ppers</w>
sto len</w>
sta te
ru in</w>
relation ship</w>
red man</w>
pre ci
pa ssing</w>
no pe</w>
lo w
kendri ck</w>
indepen dent</w>
im possible</w>
go tten</w>
gen eral</w>
ffe e</w>
do om</w>
di stri
def eat</w>
com mas</w>
cho pped</w>
cer ti
bur ner</w>
bla ow</w>
bi llion</w>
be sides</w>
zo m
stu dy</w>
sa fe
ri des</w>
resur re
rea ler</w>
pa l
li ked</w>
in for
hi ding</w>
hesit ate</w>
ha bit</w>
gra ph
fly er</w>
fen di</w>
dri ver</w>
chan nel</w>
bra ce
bl an
bastar ds</w>
8 7</w>
x x
st ain
spra yed</w>
sni ff</w>
sho ppin</w>
se es</w>
ru p
ru ger</w>
row dy</w>
pp le</w>
or din
od d</w>
n ever
mag nu
le gen
legen dary</w>
in sta
g h</w>
fo x</w>
fin al</w>
f ever</w>
emb arra
e min
du bs</w>
div ine</w>
co ffee</w>
ch s</w>
bra kes</w>
ba m</w>
ad vance</w>
ac coun
5 th</w>
ten nis</w>
sta ten</w>
spor ts</w>
so lu
s ev
pus sies</w>
pos se
pi ckin</w>
pe dal</w>
o hhh</w>
mar ley</w>
li ver</w>
khalif a</w>
gre ed</w>
ge dy</w>
da le</w>
cra p</w>
c it
bl in</w>
ac res</w>
1 3</w>
vir gin</w>
tru cks</w>
to we
te sti
swi sher</w>
stri pper</w>
str ing</w>
sta tic</w>
sou l
six ty</w>
shor ties</w>
sh ri
remin is
reminis ce</w>
reck less</w>
reci pe</w>
rea ding</w>
pig s</w>
m n</w>
lu da</w>
k k</w>
j in
gan ja</w>
di ssin</w>
dea lt</w>
dam mit</w>
d ang</w>
cro ok</w>
com mer
awe some</w>
a partment</w>
tw in</w>
tt ered</w>
th o</w>
swin gin</w>
summ er
sl in
shar k</w>
roa ches</w>
remini sc
r o</w>
pu shed</w>
pen ci
na tional</w>
mom mas</w>
messi ah</w>
less ons</w>
l u</w>
how ever</w>
ho t
her b</w>
g ru
even ing</w>
do gg
con d
chu mp</w>
app eal</w>
a do
a chi
y u
uni verse</w>
t ity</w>
stor es</w>
sou thern</w>
smi ling</w>
sh out
s se
run g</w>
ri cher</w>
r ens</w>
moti vation</w>
mo der
mar ry</w>
m un
life time</w>
l thy</w>
in ven
impa la</w>
heart less</w>
gen eration</w>
f ence</w>
ex it</w>
emce es</w>
coo ked</w>
chee ks</w>
ca b</w>
ca b
a side</w>
2 2</w>
z ar
sug gest</w>
ste ve</w>
ste pping</w>
ski es</w>
shout out</w>
sex ual</w>
re ce
rabb it</w>
la wn</w>
ki lo</w>
ill u
ha m
che w</w>
cha mp</w>
ba ll
am bu
under n
thi cker</w>
sla ves</w>
sla pped</w>
sh ers</w>
sa i
ro ws</w>
ri ch
pi lot</w>
mar ket</w>
ma ker</w>
m it
lyri cally</w>
li ff</w>
i i</w>
gin a</w>
fun ction</w>
fli cks</w>
fai thful</w>
fag gots</w>
f u</w>
cu ttin</w>
cra w
bou lev
app ear</w>
addi ct</w>
4 4</w>
1 4</w>
we tter</w>
tur ed</w>
tri al</w>
ti me
survi val</w>
stra y</w>
sna tched</w>
sme llin</w>
si e</w>
s i</w>
ru m</w>
relev ant</w>
pa ssin</w>
mo bi
lo wer</w>
lo cks</w>
lan ds</w>
j ug
i dea</w>
go s</w>
fin e
d ans</w>
cry stal</w>
ba llers</w>
am bit
6 0</w>
wri sts</w>
undern eath</w>
tu b</w>
spla sh</w>
sno w
sma cked</w>
sh er
sen din</w>
sa u
or tun
opp ortun
n9 na</w>
must ve</w>
min i</w>
lean ing</w>
h ush</w>
guaran teed</w>
emin em</w>
con dition</w>
cha millionaire</w>
ca kes</w>
ba g
a ss
a bor
whi pped</w>
wa tches</w>
tu be</w>
ter ro
swi ft</w>
supp ly</w>
su ffer</w>
sk a
scri be</w>
po ta
pa para
p on
nu ff</w>
nin es</w>
mm ys</w>
mb ling</w>
lor ds</w>
la tin</w>
k ong</w>
jour ney</w>
ja cks</w>
it d</w>
in in</w>
glo ves</w>
de mo
dam ned</w>
cra ckers</w>
conne cted</w>
con su
ben eath</w>
ar ent</w>
ang ed</w>
ac id</w>
ac ci
y i
th on</w>
swit chin</w>
summer time</w>
so ck</w>
she lf</w>
ru pt</w>
reha b</w>
pe ers</w>
p ti
p les</w>
out fit</w>
na te</w>
mid night</w>
meta ph
lamborghin i</w>
l er
ki ssing</w>
hy p
ho s</w>
happ iness</w>
gri ppin</w>
f a</w>
ex change</w>
di pped</w>
deb t</w>
cri stal</w>
ch u</w>
cei lings</w>
bor row</w>
boo t</w>
back yard</w>
ar mor</w>
aa aa
a lle
youn ger</w>
slu ms</w>
shar ks</w>
sc ree
peri od</w>
per for
per co
pass enger</w>
mid west</w>
lou der</w>
lif ted</w>
le mon
l ee
j uni
itt on</w>
in o</w>
i lle
ha ir
fil thy</w>
ex tra
ear th
cur ry</w>
cu lar</w>
crui sin</w>
coun ter</w>
char ts</w>
boulev ard</w>
bi lity</w>
bea ms</w>
ar med</w>
a ra
a llow</w>
vi s
tig er</w>
t ine</w>
strea m</w>
sta bb
sacrifi ce</w>
ru mors</w>
ro ller</w>
rea r
pa pi</w>
ob vious</w>
me th
lo c</w>
he li
har m</w>
h ed</w>
for k</w>
du ke</w>
do ctors</w>
cu ffs</w>
cou sins</w>
con vi
b its</w>
b are</w>
5 00</w>
wi lling</w>
trea ted</w>
ta r</w>
t as</w>
sti cking</w>
lu x
lega cy</w>
gen cy</w>
four th</w>
f ry</w>
emo tional</w>
cur sed</w>
coo ler</w>
ca mp</w>
bu l
bu ga
bit ter</w>
bank roll</w>
ba sed</w>
b rew</w>
au to</w>
appla use</w>
a ld</w>
ver sion</w>
up side</w>
tou ching</w>
the m
t ness</w>
t ings</w>
sk rt</w>
scre wed</w>
ro lex</w>
provi de</w>
pou red</w>
p ity</w>
op y</w>
op tions</w>
ma tics</w>
lo u</w>
kno cking</w>
inv ite</w>
inde ed</w>
in hale</w>
hor ses</w>
ha sh</w>
e state</w>
drea ds</w>
dow ns</w>
clear ly</w>
cho ppin</w>
chal k</w>
bu mping</w>
bl ank</w>
ba ske
alar m</w>
ac cor
x zi
u es</w>
tre y</w>
tatt oo</w>
tal ity</w>
ta i
sta cked</w>
st ig
sche min</w>
run s</w>
rock star</w>
rever end</w>
li cks</w>
la tions</w>
hoo die</w>
ho g</w>
gu it
flo ating</w>
exc ited</w>
en a</w>
e yed</w>
did as</w>
di ve</w>
d us
bra ids</w>
bl o</w>
be ware</w>
ar gue</w>
all ey</w>
al y
a x
wra ith</w>
whi pping</w>
to x
te m
su cking</w>
sho w
sh irts</w>
sea l</w>
re tire</w>
off er</w>
mu m</w>
me l
m ba
li c</w>
l us
ke st</w>
ju d
jo ckin</w>
it ter</w>
it ali
i g</w>
g ig
fur ther</w>
dri pping</w>
di ck
desi re</w>
de m
claim ing</w>
chap ter</w>
chang ing</w>
cen ts</w>
ca ble</w>
be ggin</w>
al though</w>
8 8</w>
3 0
vu itton</w>
ther a
te ful</w>
su dden</w>
spa ce
sp liff</w>
sli din</w>
sla sh</w>
rea din</w>
re verse</w>
re place</w>
re pla
ra lly</w>
profe ssi
pa stor</w>
oo o</w>
non sense</w>
no ther</w>
no bodys</w>
li ber
le bron</w>
hy po
ho op
hea l</w>
ha hahaha</w>
gra mmy</w>
fa ced</w>
f ought</w>
f on
chang in</w>
bb s</w>
ba t
an ti</w>
al ert</w>
xzi bit</w>
wra th</w>
ve hi
tou chin</w>
to ok
t less</w>
su ite</w>
sta cking</w>
shi f
san ta</w>
rea sons</w>
ra cing</w>
pro cess</w>
po lar</w>
per man
no o
ma x
ma les</w>
lo vely</w>
lo g</w>
jor dans</w>
ja ws</w>
im press</w>
hope less</w>
heav ens</w>
guaran tee</w>
gossi p</w>
gi ant</w>
ex posed</w>
ef fect</w>
chee k</w>
che cked</w>
cep tion</w>
bu dd
bron x</w>
bla h</w>
bee fin</w>
wi lli
ty pes</w>
tattoo s</w>
stu ffed</w>
so ap</w>
smi lin</w>
re gre
prea cher</w>
n an
min us</w>
mean while</w>
k wel
it a
in ches</w>
hone stly</w>
grou ps</w>
gri my</w>
gran ny</w>
gradu ated</w>
fra ud</w>
fin ger
fan cy</w>
ev in</w>
elec tri
deci ded</w>
d u</w>
cri bs</w>
cl out</w>
cho ppas</w>
c ease</w>
bor ing</w>
b lea
ar es</w>
a un
6 s</w>
ven i
trig gers</w>
star ving</w>
spea ker</w>
sin ner</w>
scan da
sand wi
ra cist</w>
r ights</w>
prote ction</w>
pho to</w>
me lo
mb a</w>
ma yor</w>
insta gram</w>
ille gal</w>
hor ny</w>
hig hest</w>
grea ter</w>
gor geous</w>
fo ld
fla sh
close st</w>
che ss</w>
bla des</w>
ba king</w>
5 s</w>
wonder in</w>
wan ting</w>
wait ed</w>
ven om</w>
v ey</w>
ty son</w>
sp are</w>
so cial</w>
sa tur
ru ler</w>
roo t</w>
ro am</w>
ri ders</w>
pig e
papara zzi</w>
on e
ma ls</w>
itt ers</w>
hor n</w>
hi din</w>
free way</w>
fou rs</w>
flor ida</w>
fla shin</w>
fa ir
cu late</w>
coo lin</w>
com pla
car es</w>
bun ny</w>
bott oms</w>
b b</w>
a didas</w>
yo use</w>
w er
versa l</w>
t ys</w>
swea tin</w>
st ev
spr ite</w>
so o
robb ery</w>
po o
plan ned</w>
op rah</w>
mo tto</w>
ma tters</w>
m is</w>
lo ser</w>
lex us</w>
le gal</w>
kwel i</w>
ki sses</w>
k ans
kans as</w>
juni or</w>
hand ed</w>
go spe
g en</w>
fro wn</w>
flo wer</w>
ee ee
de mean
d d</w>
cra ck
comm unity</w>
bl ur
be es</w>
2 3</w>
ve ge
va ted</w>
to tin</w>
ti mbs</w>
spo on</w>
sp rung</w>
sof a</w>
so s</w>
sn or
pla ys</w>
pi g</w>
oun ces</w>
mu g</w>
moder n</w>
mo thafuckas</w>
jig gy</w>
it i</w>
it ary</w>
gar den</w>
fre ddie</w>
foo tball</w>
eu ro
down town</w>
de sign</w>
da ted</w>
con dom</w>
chang es</w>
cand le</w>
bu g</w>
brea ker</w>
b y
aw w</w>
atta ched</w>
afri ca</w>
1 st</w>
woo p</w>
thro wed</w>
ter y</w>
swea ter</w>
stra ps</w>
sme lling</w>
sli d</w>
sha dow</w>
ridicu lous</w>
re ma
quar ters</w>
ne cks</w>
n es</w>
m bi
lo go</w>
light ning</w>
la ur
k it</w>
holly grove</w>
gentle men</w>
g ress</w>
fa cin</w>
ex otic</w>
evi dence</w>
es se</w>
di sci
co lu
char les</w>
certi fied</w>
bu b
bla stin</w>
aven ue</w>
ambu lance</w>
yy yy
y eezy</w>
war n</w>
w id</w>
th ouse</w>
swit ching</w>
so il</w>
sho ve</w>
se i
scrip tion</w>
satis fied</w>
ri co</w>
rela x
ra q</w>
ra c
politi cs</w>
p le
ner ves</w>
na il</w>
mo bbin</w>
meth od</w>
ma sses</w>
ka ve
jo ck</w>
gu m</w>
frank lin</w>
flo ssin</w>
explo de</w>
experi ence</w>
d rew</w>
cu tting</w>
ci ans</w>
bu sters</w>
ai ds</w>
ac compli
wi l
tri x</w>
stin k</w>
rif le</w>
rep ly</w>
ra ins</w>
proper ty</w>
per form</w>
p har
lu da
l oun
ki los</w>
k ra
high ly</w>
gran ted</w>
g i</w>
fr o</w>
entertain ment</w>
civi li
centra l</w>
bur ners</w>
bor ed</w>
blun ted</w>
a sh
wo mb</w>
ul timate</w>
tro ops</w>
tr en
t ore</w>
swer vin</w>
ster e
st oned</w>
sor ta</w>
sku ll</w>
skin ned</w>
sh i</w>
s u</w>
pre cious</w>
pra yers</w>
pl ant</w>
n s
lo bster</w>
li ckin</w>
law yers</w>
j us</w>
floo d</w>
fi le</w>
fa tal</w>
eng lish</w>
de fea
da tion</w>
cla ppin</w>
car r
brea st</w>
boo st</w>
bi lli
an aly
a da
3 6</w>
wan tin</w>
vo te</w>
tu mmy</w>
thro w
swin ging</w>
str angers</w>
st ains</w>
side ways</w>
pri ze</w>
pre ten
po ints</w>
night mar
nightmar es</w>
mo ments</w>
magaz ines</w>
ma ke
li er</w>
j im</w>
holi day</w>
ha lle
fre sh
fin esse</w>
fa bri
expe cted</w>
en ces</w>
di stur
dem and</w>
criti cal</w>
cor ny</w>
baske tball</w>
an a
ugh ty</w>
tra ined</w>
te mple</w>
star vin</w>
sk ins</w>
sel fish</w>
secre ts</w>
se tt
s p</w>
roa ds</w>
pla ques</w>
pa vement</w>
over dose</w>
never mind</w>
na vy</w>
mur k</w>
mon y</w>
mid st</w>
mi ssy</w>
king dom</w>
ja co
j ury</w>
it ing</w>
hero in</w>
gospe l</w>
gho st
ga mble</w>
fea tures</w>
fea rs</w>
exe cu
dri ve
disgu ise</w>
dece mber</w>
cur tains</w>
con ver
bro ad
boun cin</w>
bir dman</w>
a wards</w>
a pe</w>
y an
wal ks</w>
tra il</w>
thin ks</w>
them selves</w>
sur face</w>
stea lin</w>
star ter</w>
sta ys</w>
si rens</w>
sc rap</w>
safe ty</w>
rea per</w>
r on
oo ooh</w>
o ven</w>
o ak
mo tor</w>
mo o
men tary</w>
magnu m</w>
lu ther</w>
llo w
li sa</w>
le te</w>
kna h
ja r</w>
i an</w>
hur ri
hal f
ge e</w>
e ts</w>
di se</w>
dd ys</w>
d js</w>
concer ned</w>
commer cial</w>
co w
co ppin</w>
ca ddy</w>
b anger</w>
aw k
att emp
ad mi
1 s</w>
we igh</w>
w w</w>
veter an</w>
towe l</w>
ti ves</w>
sui cidal</w>
sub ject</w>
stea ling</w>
sli pping</w>
sl it</w>
sca re</w>
sa vior</w>
re es</w>
pea k</w>
p ine</w>
or ders</w>
o gs</w>
no on</w>
na ughty</w>
milit ary</w>
ly n
lo co</w>
lea sh</w>
lea ders</w>
je lly</w>
j ee
in car
fu l
fri es</w>
floo ded</w>
flo p</w>
ex tre
en i
dev i
d or</w>
cra ft</w>
char lie</w>
cha mill
bo ld</w>
bea mer</w>
bab ys</w>
ba con</w>
au de
alco holi
9 0</w>
wha ssup</w>
ver bal</w>
un for
tt ery</w>
tor ch</w>
thu mb</w>
ter ror</w>
te cs</w>
stri kes</w>
ss er</w>
satur day</w>
ren tal</w>
professi onal</w>
prin ts</w>
pal ms</w>
op p</w>
nor mal</w>
motherfuck a</w>
me ga</w>
ma kave
li p
jamai ca</w>
ja pan</w>
he ll
halle lu
guit ar</w>
follo wed</w>
fo e</w>
flo wing</w>
fle e</w>
fi li
ev es</w>
di shes</w>
chin ese</w>
char m</w>
cab bage</w>
c ture</w>
c red</w>
c ow</w>
buga tti</w>
bu ckin</w>
bo sses</w>
basi cally</w>
there fore</w>
st it
squ ares</w>
sou p</w>
sni per</w>
shri mp</w>
roo ts</w>
ri age</w>
rea ched</w>
re x</w>
pu er
po ster</w>
org ani
op tion</w>
min s</w>
mar shall</w>
le mon</w>
ja son</w>
inte lle
i phone</w>
heli cop
gu s</w>
gr im</w>
fra mes</w>
ex tor
di et</w>
d itch</w>
co lli
char ges</w>
ca pe</w>
back ground</w>
any time</w>
and ed</w>
amm o</w>
advan tage</w>
a ck
3 8</w>
win d
v ig
ti ppin</w>
thous ands</w>
te ll
sma shed</w>
s day</w>
re pping</w>
po ts</w>
pi zz
pain ted</w>
pa cking</w>
p re</w>
over night</w>
lun g</w>
kar din
is m</w>
in fe
illu min
hu mmer</w>
home less</w>
hallelu jah</w>
ea zy</w>
don na</w>
die sel</w>
de signed</w>
col dest</w>
c et</w>
bloo ded</w>
bi scu
avo id</w>
usu al</w>
ur s</w>
threa ts</w>
ta le</w>
sp y</w>
sn ort</w>
sli pped</w>
sk eet</w>
sil k</w>
sh eet</w>
secur e</w>
se du
scanda lous</w>
roy al</w>
ra di
puer to</w>
pu s</w>
ph at</w>
penci l</w>
p less</w>
ough ta</w>
ne ys</w>
ma ti
lea king</w>
la test</w>
l p</w>
ja ke</w>
intellig ent</w>
gori llas</w>
gi es</w>
gi a</w>
fl ee
feder al</w>
emp lo
du cking</w>
conversa tions</w>
com par
clo th</w>
cig ar</w>
ce me
ca ra
bra wl</w>
ange les</w>
9 5</w>
z s</w>
tw ee
tor n</w>
televi sion</w>
tax es</w>
stre ssing</w>
sti ff</w>
sno opy</w>
s ore</w>
ro tten</w>
reg gie</w>
par ti
noti ced</w>
myster y</w>
mou se</w>
mon day</w>
m ite</w>
la mb</w>
kit ty</w>
ho lds</w>
g love</w>
dra ws</w>
demean or</w>
d ank</w>
chi l
challen ge</w>
as si
amon g
afri can</w>
ab and
2 00</w>
wor ship</w>
tra u
t int</w>
swi mmin</w>
su m
st ank</w>
robb ing</w>
re my</w>
pre fer</w>
pa ys</w>
pa s
opp s</w>
o sa
na c</w>
n n
mira cle</w>
m tv</w>
luda cris</w>
lla h</w>
k ris</w>
inv ited</w>
in e
her self</w>
he he</w>
fo g</w>
fla shing</w>
fa cing</w>
exa mple</w>
enti re</w>
ef fe
dire ct</w>
di zzy</w>
den im</w>
d din</w>
cur e</w>
con tem
buzz in</w>
among st</w>
ver s
u mm</w>
the me</w>
sa n</w>
r ang</w>
pro stitu
por n</w>
opp on
n it
lar ry</w>
kardin al</w>
im ma
heav enly</w>
ha lo</w>
g lea
follo wing</w>
emp ire</w>
e la
div or
disa ster</w>
destru ction</w>
dedi cate</w>
comple x</w>
co on</w>
ce e</w>
cand les</w>
bur ger</w>
at ors</w>
app et
a lot</w>
wi shes</w>
vo cal</w>
vi su
under cover</w>
th or</w>
ta pped</w>
swit ches</w>
su m</w>
sp ire</w>
shor ts</w>
s ch
ru g</w>
rr rr
ro t</w>
re be
popu lar</w>
ph en
mee ting</w>
makave li</w>
lev itate</w>
ja cked</w>
ho bby</w>
grea sy</w>
go on</w>
ga tors</w>
ga ssed</w>
exc lus
ex cell
er als</w>
e tta</w>
dr en
don ald</w>
da ddys</w>
crea tor</w>
confi dence</w>
co ma</w>
cha u
cele br
blee din</w>
bla m</w>
ama zin</w>
zoo m</w>
z ay</w>
wor thy</w>
war ning</w>
vide os</w>
ve l
v room</w>
uni versal</w>
u pper</w>
u mb
tra ce</w>
t d</w>
sus pi
strugg lin</w>
stev ie</w>
spo ken</w>
some bodys</w>
ri bs</w>
phi lo
no od
mul tip
me ssed</w>
ma ser
lin a</w>
li ke
ki ssed</w>
i ler</w>
ho pes</w>
g ins</w>
fanta sy</w>
emce e</w>
easi ly</w>
do zen</w>
dedi cation</w>
dar ling</w>
cha ble</w>
cea sed</w>
c ough
c ey</w>
build ings</w>
blon de</w>
band ana</w>
whisp er</w>
vi sh</w>
va in</w>
ur a</w>
tt os</w>
ten ed</w>
sta n</w>
soun d
sa mple</w>
re por
pp er
po ver
play boy</w>
pen e
pa tro
pa thy</w>
p on</w>
ow ner</w>
offi cer</w>
mul ti
mobi le</w>
ma gi
lit ter</w>
lin col
ir relevant</w>
imp er
gui de</w>
gra teful</w>
ga la
fin ding</w>
er ally</w>
discus sion</w>
de scribe</w>
colo gne</w>
ca su
bo ws</w>
an gry</w>
ac cep
a tic</w>
a ston</w>
4 th</w>
4 7</w>
yo la</w>
wonder ful</w>
wel fare</w>
wa king</w>
va gina</w>
umb re
tw ins</w>
tra gic</w>
tr ina</w>
ti ckets</w>
thor ough</w>
th ong</w>
temp er</w>
t u</w>
spir its</w>
so m</w>
sh ore</w>
s well</w>
regre ts</w>
r ant</w>
po tent</w>
po t
plo tting</w>
pen thouse</w>
pen nies</w>
pa ges</w>
ordin ary</w>
nin ja</w>
mo et</w>
mo e</w>
mi ss
ma sters</w>
ma ra
lyri c</w>
la rs</w>
je ts</w>
ho ps</w>
ha u
ha ra
exclus ive</w>
do or
defea ted</w>
crun k</w>
croo ks</w>
contra ct</w>
con ce
ci es</w>
chas ed</w>
butt ons</w>
bu ckle</w>
bra ve</w>
bo dy
be gun</w>
ar re
af fe
a ward</w>
z oo</w>
wer ent</w>
vo ices</w>
vio late</w>
tw en
tt up</w>
tr ed</w>
thi ef</w>
su cks</w>
su bur
ru ff</w>
roy alty</w>
ro g
refle ction</w>
reali zed</w>
r out
pro vo
philo so
para dise</w>
or e
opportun ity</w>
o ffer
o be
neigh bor</w>
men age</w>
mar ble</w>
mani fe
lo tto</w>
laugh ed</w>
la u
la ti
kno ts</w>
k o</w>
it self</w>
influ ence</w>
indi vi
imag in
hurri cane</w>
ha tred</w>
gif ted</w>
fix ed</w>
fi sh
fai led</w>
f lin
ex press</w>
elev ator</w>
edu cation</w>
de te
de ceased</w>
cru ci
cir cles</w>
chil dish</w>
cha rac
ch ir
ca stle</w>
bud get</w>
bea t
b u</w>
b angers</w>
app ly</w>
ac tor</w>
a bus
wa ters</w>
tra te</w>
ta cti
t ress</w>
sy m
sta ble</w>
sma lls</w>
sil en
si zz
sha o
scu m</w>
sche mes</w>
ro ses</w>
ro rs</w>
ro bin</w>
re fer
py ra
pro ba
pra yed</w>
pow er
ph on
per c</w>
pa tch</w>
out law
opin ion</w>
mou r
mor se</w>
ma trix</w>
le one</w>
jun e</w>
in spir
in do</w>
in crea
i ed</w>
hur ting</w>
ho va</w>
h id</w>
gro ws</w>
gr in</w>
gen e
ga so
fu r</w>
fri end
fo am</w>
fla ws</w>
f red</w>
even tually</w>
ear ned</w>
dun geon</w>
destin ed</w>
deci sions</w>
cra shed</w>
ci sm</w>
budd ha</w>
ber t</w>
ba p</w>
ba i
awk ward</w>
5 9</w>
x ans</w>
x an</w>
wh a</w>
tun nel</w>
tox ic</w>
thi eves</w>
the e</w>
tea se</w>
ste in</w>
spi llin</w>
soul ja</w>
sk unk</w>
sick ness</w>
s sey</w>
roman ce</w>
re load</w>
outlaw z</w>
no ve
n ys</w>
mi lls</w>
mar ch</w>
like ly</w>
infor mation</w>
im pressed</w>
holl erin</w>
gra ve
ga ther</w>
for est</w>
fla gs</w>
fl u</w>
fir m</w>
fa llen</w>
er ic</w>
emer gency</w>
e lla</w>
e ggs</w>
den zel</w>
curren cy</w>
con s</w>
compli cated</w>
ci a</w>
cap ital</w>
ca ppin</w>
bu lly</w>
bro w
boo min</w>
blo wed</w>
bar bie</w>
addi ction</w>
a sian</w>
a gg
a gen
a ch</w>
zom bie</w>
z u
vi bes</w>
v ac
u ts</w>
u pt</w>
tri es</w>
tee ns</w>
ta sk</w>
stun na</w>
so o</w>
se le
pri ces</w>
po ten
ne t
mu tha
me tha
ma ine</w>
li mp</w>
la bor</w>
kid nap</w>
jea n</w>
inten tions</w>
ignor ance</w>
ha w</w>
grea se</w>
gra mmys</w>
fre sher</w>
fr ance</w>
f ing</w>
dy na
demon stra
cu lt</w>
chain z</w>
bu lls</w>
8 5</w>
wa h</w>
v vs</w>
uu uu
tri ckin</w>
to mb</w>
swea ting</w>
su e
sp l
scar red</w>
sandwi ch</w>
sa ving</w>
rema ins</w>
rain bow</w>
ra e</w>
prin cess</w>
pover ty</w>
play as</w>
ox y
ou ter</w>
nu n</w>
na m</w>
murder ous</w>
min ded</w>
men s</w>
mea sure</w>
me y</w>
ma dness</w>
la la
k night</w>
in vest</w>
g ly</w>
flu id</w>
ess ence</w>
equi pped</w>
du m
du ffle</w>
dev elo
de mo</w>
d m
corpor ate</w>
concer n</w>
com b
coa ts</w>
cau tion</w>
bur gh</w>
br ee
back seat</w>
allo wed</w>
a ks</w>
9 s</w>
who o</w>
wan na
ve in</w>
v or</w>
tor y</w>
tin a</w>
th ea
spo sed</w>
sho vel</w>
rin g
rea chin</w>
pu mps</w>
produ ce</w>
po wers</w>
ph ant</w>
pay back</w>
op eration</w>
no tch</w>
ne phew</w>
mb led</w>
land ed</w>
ki lls</w>
ju veni
ja kes</w>
ja ckin</w>
i di
hyp noti
hall way</w>
gr eet</w>
gi lla</w>
foo t
fer ra
ele phant</w>
du ct</w>
dan cer</w>
cro ss
confe ss</w>
comm uni
claim in</w>
cho ir</w>
chamill itary</w>
cha mber</w>
ceme tery</w>
cam pa
c ds</w>
bro tha</w>
bi ll
be gan</w>
appet ite</w>
ama te
ack no
ac tions</w>
ab y
warri or</w>
vi cti
tu e</w>
tri fe</w>
to on</w>
thir st</w>
survi ved</w>
sur round</w>
stea m</w>
sl ing</w>
shao lin</w>
rela ted</w>
rai der</w>
poe try</w>
n eva</w>
mor tal</w>
mor al</w>
mi a</w>
lip stick</w>
lear ning</w>
l one</w>
k les</w>
ir onic</w>
introdu ced</w>
i dea
hor ror</w>
ho llows</w>
ha un
gree ns</w>
f ear
en jo
dra wn</w>
dea f</w>
da ve</w>
da ls</w>
cru shed</w>
comm itted</w>
b ong</w>
ali en</w>
aim ing</w>
a hhh</w>
6 4</w>
young n</w>
wi llie</w>
wa gon</w>
ve tte</w>
un tou
trea sure</w>
tra gedy</w>
tee na
ta ils</w>
stu dent</w>
spi lled</w>
some time</w>
sno o
sha wn</w>
ro pes</w>
ro d</w>
ri er</w>
respe cted</w>
re morse</w>
ra cin</w>
pu ffy</w>
pro gress</w>
por k</w>
pi er
pi cking</w>
n ba</w>
men tality</w>
lit erally</w>
li ze</w>
lea kin</w>
kni ves</w>
ke e</w>
it e
hol mes</w>
hea lthy</w>
he i
ha tes</w>
gun nin</w>
fe males</w>
epi so
di va</w>
desp ite</w>
cri mes</w>
cree ping</w>
con gra
ca tions</w>
ca sin
c uss</w>
c i</w>
bur ns</w>
bb a</w>
ban anas</w>
agg re
4 0s</w>
zi g</w>
x 2</w>
wi llin</w>
wha ttup</w>
vi bra
tun es</w>
ti al</w>
throw back</w>
temp t</w>
te le</w>
sue de</w>
su it
sta ur
spi ke</w>
space ship</w>
sli ding</w>
shin es</w>
sh el
sche ming</w>
sa r</w>
rea ching</w>
re su
re staur
re port</w>
quar ter
pu n</w>
pota to</w>
perman ent</w>
p p</w>
p li
on y
off en
o x</w>
no tor
mus li
mo thafuck
me chan
ma fi
ma c
li me</w>
lev els</w>
lea p</w>
k lan</w>
ins an
indivi du
i sha</w>
hea ters</w>
gr itty</w>
go tcha</w>
fu llest</w>
flav ors</w>
f it
dy ke</w>
defen se</w>
da mes</w>
coo kie</w>
conqu er</w>
concer t</w>
cla pped</w>
ca de</w>
bus s</w>
bro c
bo ats</w>
bent leys</w>
bat man</w>
ac cu
y y</w>
y ee
wi zard</w>
ti mber
shi eld</w>
sh rooms</w>
s wore</w>
ru mble</w>
rin gin</w>
rich ard</w>
ri lla</w>
ra gs</w>
pur chase</w>
pre mi
pp ie</w>
po s</w>
po ly</w>
pha se</w>
pe sos</w>
or i
or ed</w>
mul ti</w>
moun tains</w>
mou ths</w>
man age</w>
lincol n</w>
li ons</w>
jewel er</w>
jamai can</w>
ja ms</w>
ho pping</w>
heav y
hand some</w>
gra vy</w>
geor gia</w>
ga tor</w>
g le
f lights</w>
ev ers</w>
er r
du g</w>
de pen
de ja</w>
custo m</w>
cor leone</w>
co sts</w>
co li</w>
classi cs</w>
cla r
chu cks</w>
box es</w>
bo mb
bo ards</w>
bit in</w>
beyon ce</w>
ba ld</w>
ang les</w>
2 4s</w>
2 0s</w>
vo mit</w>
tri bu
to wer</w>
thri ll</w>
the tic</w>
ten sion</w>
stra te
sor row</w>
sh itting</w>
sever al</w>
pe an
pan e</w>
p earl</w>
ou ch</w>
off end</w>
n uh</w>
mor gue</w>
mar ching</w>
loo p</w>
lin ks</w>
lim its</w>
leg ends</w>
la vish</w>
la un
jewe l</w>
infin ite</w>
in su
hus band</w>
hone ys</w>
glu e</w>
fi llin</w>
fav ors</w>
fa h</w>
every thin</w>
earth qua
drea med</w>
de ss</w>
coo kies</w>
compe te</w>
cla pping</w>
che ck
car ried</w>
c ities</w>
br im</w>
bi h</w>
be fo</w>
ba lly</w>
app ro
an them</w>
admi re</w>
5 0
we ss
victi ms</w>
vi a</w>
to tally</w>
ti ming</w>
thank ful</w>
ter ed</w>
te fl
swee ter</w>
state ment</w>
spin ach</w>
slu ts</w>
sho cked</w>
sha q</w>
sen ten
s we
ro de</w>
ri pping</w>
r ene
pos itions</w>
po ker</w>
par ted</w>
pa role</w>
our selves</w>
nin o</w>
ne u
mb lin</w>
man a
ma the
ma ssive</w>
ma ckin</w>
lu g
lin en</w>
ligh tly</w>
jer ry</w>
hor ns</w>
hi ll
h em</w>
gro w
gr en
gr ands</w>
go at</w>
fre qu
felon y</w>
fa king</w>
eter nal</w>
en ni
cor pse</w>
cond iti
comm it
com bin
cla sses</w>
che a</w>
char ged</w>
1 9</w>
wo y</w>
vi ces</w>
val et</w>
te lls</w>
tal es</w>
ta h</w>
stor s</w>
sti cs</w>
sp er</w>
sli me</w>
sla very</w>
sea sons</w>
se men</w>
scri lla</w>
screa ms</w>
sa tell
sa d
s way</w>
s ane</w>
pu pp
or dered</w>
on gs</w>
o z</w>
nin e
mon s</w>
mi st</w>
mar vin</w>
kee m</w>
k ri
is le</w>
inter national</w>
hon da</w>
ho mo</w>
he e</w>
girl friends</w>
fu el</w>
foun dation</w>
flo ck</w>
fi sts</w>
fa b</w>
ex ce
elev ate</w>
e gg</w>
drea d</w>
d na</w>
cru mbs</w>
co s
co bra</w>
cigare tte</w>
chu mps</w>
cho o</w>
bus sin</w>
broc coli</w>
brace let</w>
br ed</w>
bb ing</w>
as su
app ar
ani mals</w>
ang led</w>
a wa
w ounds</w>
untou chable</w>
tip sy</w>
they ve</w>
there ll</w>
sy mbo
swallo wed</w>
sus pen
supp or
stra in</w>
ssa ges</w>
ss a</w>
sp litt
slu m</w>
slee ves</w>
sla b</w>
sk ee
s ks</w>
ru thless</w>
rin ging</w>
re pu
re pea
proper ly</w>
pizz a</w>
pen is</w>
pa r</w>
pa ger</w>
op era</w>
o j</w>
ne west</w>
n i</w>
mee ts</w>
mee k</w>
master ed</w>
mar ked</w>
m rs</w>
lo an</w>
idea s</w>
hoo p</w>
frea kin</w>
f uss</w>
esca la
du ty</w>
dr un
do ts</w>
cu les</w>
cr an
congra tu
conf usion</w>
con sequ
compu ter</w>
c le
bor der</w>
ba pti
b ever
al ine</w>
af fili
a tes</w>
x y</w>
tw eet</w>
the n
terri ble</w>
stre tched</w>
spa des</w>
sh itty</w>
sh itll</w>
reme dy</w>
rec ite</w>
pro s</w>
pro gram</w>
pra i
pi cal</w>
oak land</w>
o in
nar co
n ity</w>
man eu
ma ze</w>
lemon ade</w>
ju icy</w>
j r</w>
inven ted</w>
inter ven
in sur
i cky</w>
hero es</w>
ha ps</w>
gif ts</w>
gaso line</w>
g ur
fla w
fe lon</w>
fa ctor</w>
en vir
en as</w>
drive way</w>
dra in</w>
do lo</w>
cra b</w>
con o
co me
clear er</w>
circu m
ci ent</w>
che ers</w>
bi kes</w>
benja mins</w>
ben e
apologi ze</w>
acci dent</w>
wha ti
vin nie</w>
un o</w>
tit ty</w>
tigh ter</w>
tefl on</w>
ta ts</w>
snu b</w>
smi les</w>
sala d</w>
rear view</w>
oooo oooo
oo ps</w>
on ment</w>
ni bal</w>
mu ddy</w>
m igh
l ure</w>
k nee
indi an</w>
hi dden</w>
fron ted</w>
figh ter</w>
fe it</w>
er o</w>
dre ssing</w>
dre sser</w>
disp lay</w>
dar ts</w>
cu pid</w>
cou pes</w>
con centra
cl one</w>
ce lls</w>
brigh ter</w>
be d
au then
attra ct</w>
an no
ac tors</w>
a ro
a ka</w>
9 6</w>
yo n</w>
whit es</w>
villa ge</w>
tu m</w>
tru est</w>
to s</w>
t vs</w>
swo le</w>
sub stance</w>
st roll</w>
smar ter</w>
sla ugh
shin y</w>
sea ter</w>
s ar
rubb in</w>
robb ers</w>
rece ive</w>
re ll</w>
poin ted</w>
po tion</w>
pi ssy</w>
off ended</w>
na ppy</w>
inter e
i denti
home girl</w>
high s</w>
hel ps</w>
heart beat</w>
he ctic</w>
h ire</w>
grea tness</w>
gi e
ghe tti</w>
fli r
flaw less</w>
exi st
ev a
e cono
dri zzy</w>
di or</w>
de u
da p</w>
d ant</w>
cu rious</w>
crimin als</w>
cow boy</w>
co ca</w>
chin a</w>
ca m</w>
c ee
bu stas</w>
be ts</w>
be ha
base ball</w>
bar ber</w>
ba ckin</w>
aby ss</w>
a j</w>
a fro</w>
youn gest</w>
we igh
to ck</w>
tis sue</w>
thu mp</w>
thr ough
temp era
te lly</w>
tacti cs</w>
spo t
spe cta
so lar</w>
scen es</w>
roo f
represen tin</w>
reme mb
pri son
plea d</w>
pea ce
pa le</w>
mo stly</w>
mo p</w>
maser ati</w>
inspir ed</w>
in stin
im pre
im it
i ller</w>
i den
hy dra
h ee
given ess</w>
gi bbs</w>
fla t
fine ssin</w>
fe tti</w>
ev ent</w>
er ator</w>
er as
en gin
du cks</w>
deli ver
de pression</w>
de l
de fine</w>
cur ve</w>
cu e</w>
chau ffe
bit chin</w>
believ ers</w>
be gging</w>
be comes</w>
assa ss
arre sted</w>
ar rog
a x</w>
3 s</w>
war ned</w>
ver sus</w>
twen ties</w>
took a</w>
sus pe
stere o</w>
st es</w>
spa zz</w>
sho wn</w>
schoo ls</w>
sala ry</w>
sa wed</w>
run way</w>
ro y</w>
resi st</w>
pu mping</w>
pro m</w>
pre t
ob sta
muh fucker</w>
mon sters</w>
lu pe</w>
ll u
lin ed</w>
ke isha</w>
ju ly</w>
john son</w>
jaco b</w>
it z</w>
hu gs</w>
han na</w>
ha iti
gu est</w>
f us
exc uses</w>
electri c</w>
eigh teen</w>
ea h</w>
do mini
di ssed</w>
di ffi
de termin
cur l</w>
crea tion</w>
com man
co ppers</w>
co des</w>
cit ys</w>
chi lls</w>
bu sted</w>
bri dges</w>
bar be
a ca
3 0s</w>
1 8
z ine</w>
ye st</w>
wo of</w>
win ners</w>
w y
volu me</w>
ven us</w>
vehi cle</w>
su ge</w>
sty lin</w>
sp lur
soun ding</w>
ske ts</w>
respon d</w>
ran dom</w>
ra kim</w>
py rex</w>
psy chi
pp able</w>
po sing</w>
pe pper</w>
out come</w>
on ary</w>
n d</w>
mafi a</w>
ma id</w>
m ere</w>
lo vers</w>
lo sers</w>
lev el
la dder</w>
kid ding</w>
ka rate</w>
k ite</w>
it chin</w>
inter est</w>
in ci
hu t</w>
hope fully</w>
h ound</w>
gun shots</w>
for giveness</w>
fli rt</w>
exten ded</w>
ex er
dig ging</w>
da tes</w>
d im</w>
ca pa
c ling</w>
bo ston</w>
blue print</w>
blu ff</w>
bad der</w>
back pack</w>
assa ssin</w>
al ties</w>
aim in</w>
5 0s</w>
whi sk
wa tts</w>
umbre lla</w>
t itude</w>
sty ro
stra igh
sta ir
squ a
possi bly</w>
po sure</w>
po et</w>
p itt
p its</w>
on i</w>
notor ious</w>
mix tapes</w>
mista ken</w>
mar riage</w>
lux ury</w>
lo gic</w>
ka mi
juveni le</w>
insan ity</w>
ido l</w>
ha i
grabb ing</w>
gra m
goo ds</w>
for ces</w>
fla unt</w>
fair y</w>
f east</w>
en tal</w>
dod gin</w>
divi de</w>
di um</w>
crow ded</w>
coun ter
cor d</w>
convin ced</w>
contin u
coa ster</w>
clin ton</w>
chi es</w>
cer eal</w>
ca skets</w>
ca e
bru i
br it
bor ough</w>
blin ded</w>
bit ing</w>
b ould
assa ult</w>
ad vi
ad ore</w>
2 2s</w>
wor ries</w>
wor kers</w>
wess on</w>
wa sting</w>
wa stin</w>
v oo
uni que</w>
to wards</w>
to tal</w>
str o</w>
ss or</w>
some things</w>
sni ffin</w>
sequ el</w>
see med</w>
sa cred</w>
ro ast</w>
re mo
rai sin</w>
r za</w>
pir an
mp les</w>
mo ld</w>
logi cal</w>
lo ws</w>
la ss</w>
l k</w>
ke y
ka ze</w>
je cts</w>
itali an</w>
fl yest</w>
fi lling</w>
fi endin</w>
fa sc
eigh th</w>
dra ft</w>
disc uss</w>
cra cking</w>
com pared</w>
co la</w>
ci roc</w>
chea ting</w>
cae sar</w>
bu mps</w>
brea sts</w>
bra ke</w>
boo t
bli ss</w>
begin nin</w>
ba tch</w>
ba m
b ans</w>
al li
a si
a ms</w>
6 5</w>
wi ves</w>
vie t
tou ch
th ra
tea ching</w>
su rely</w>
squ ir
sli ppers</w>
sk ele
ri dd
respon sible</w>
rep ent</w>
re vi
pur su
pitt s
pe w</w>
para de</w>
par kin</w>
pa ja
nove mber</w>
ni fi
ne m</w>
mo tha
mani ac</w>
man ners</w>
ma se</w>
ma g</w>
ma che
kno cks</w>
kin ds</w>
k er
ju an</w>
j is</w>
in fra
hou se
hand lin</w>
ha bits</w>
guar ds</w>
ge ment</w>
fre ddy</w>
fa kes</w>
ex per
ex act</w>
dur ing</w>
deba te</w>
cu tie</w>
cig ars</w>
celebr ity</w>
ce st</w>
caro lina</w>
campa ign</w>
ca ly
bo ppin</w>
bla zing</w>
bla zed</w>
bla sted</w>
bit ty</w>
bi o
be ll
batt les</w>
batt ery</w>
ba ked</w>
au thor
as sume</w>
and a</w>
a z</w>
a unt</w>
a th
a like</w>
a dam</w>
2 8</w>
win s</w>
vi sible</w>
val ue</w>
u ber</w>
tren ches</w>
tor ture</w>
thug ged</w>
through out</w>
te x</w>
te k</w>
t ment</w>
ss i</w>
soun din</w>
sho wers</w>
sh rin
scra pe</w>
ru ck
ruck us</w>
ra pi
power ful</w>
pi lla
ph et</w>
pe st</w>
pe de
p ins</w>
o es</w>
n ana</w>
mo tor
me ssin</w>
may n</w>
make up</w>
lug gage</w>
li mo</w>
lea se</w>
l ore</w>
kid na
in je
i ster</w>
half way</w>
go l
gg ers</w>
gen u
gang bang</w>
fla m
fi ction</w>
fer ence</w>
fea ture</w>
fa tig
exer ci
ex pla
envir onment</w>
emb race</w>
dri ft</w>
di sh
de pressed</w>
de mi
dar kest</w>
cor n
coo lest</w>
comm and</w>
combin ation</w>
com mit</w>
cli en
cla ssy</w>
child hood</w>
chi co</w>
car lo</w>
ca ri
ca mou
bla sting</w>
b ys</w>
auto graph</w>
and re</w>
an na</w>
witne sses</w>
wit chu</w>
under standing</w>
un ks</w>
un ited</w>
u ary</w>
tu ition</w>
tro phy</w>
th ur
swi shers</w>
star ve</w>
spa zz
ser en
scree ns</w>
s ly</w>
rus sell</w>
ro bo
rea l
proba tion</w>
pro phet</w>
politi cians</w>
phen o
pas sport</w>
pa tter
p int</w>
o m
my sti
moti vate</w>
mo ses</w>
mo an</w>
min d
min aj</w>
mar ty
ma tes</w>
lu cy</w>
lor s</w>
ll ery</w>
jee ps</w>
iden tity</w>
ho ckey</w>
hea ding</w>
g be</w>
for gotten</w>
ex pose</w>
du mpin</w>
dri ven</w>
da z</w>
da da</w>
conne ction</w>
con vo</w>
con fli
cho ked</w>
camou fla
ca used</w>
ble ssin</w>
bea rs</w>
b our
aun tie</w>
ambit ion</w>
9 0s</w>
2 x</w>
wor d
vin tage</w>
vi sa</w>
tw os</w>
tur key</w>
thu mb
sw eep</w>
stri ve</w>
spra yin</w>
spi der</w>
sp an
solu tion</w>
sci enti
sa cks</w>
roo kie</w>
ri ddle</w>
pri ce
po d</w>
plan ted</w>
per pe
pa ci
or ity</w>
nur se</w>
no things</w>
nee dles</w>
ne st</w>
na da</w>
mon i
mm mmm</w>
min ate</w>
ma xi
ma ssage</w>
lo ttery</w>
lla ma</w>
knu ckles</w>
ke l</w>
kami kaze</w>
instru mental</w>
heavy weight</w>
hear ted</w>
gu eri
gr o</w>
fami lies</w>
fa g</w>
effe cts</w>
distri bu
cu di</w>
cra cker</w>
colla pse</w>
co pe</w>
co lon
cer e
casin o</w>
ca sh
blood shed</w>
bi c</w>
benja min</w>
an n
al ds</w>
accor ding</w>
a st
a irs</w>
vi vid</w>
vi ously</w>
ur es</w>
tra ps</w>
to x</w>
thir teen</w>
sur es</w>
stu tter</w>
ste ms</w>
spa ghetti</w>
some ones</w>
snit ching</w>
sho e
satell ite</w>
s ang</w>
ri hanna</w>
rai sing</w>
pla ted</w>
pitts burgh</w>
pit bull</w>
pheno men
pa wn</w>
pa t
p oun
p ledge</w>
p ains</w>
ous ness</w>
ni e
mono poly</w>
ma ssa
lu m</w>
lo ck
level and</w>
lati fah</w>
kha kis</w>
jun kie</w>
je wish</w>
in ate</w>
hi l
her cules</w>
he lls</w>
gor y</w>
g ain
fuck as</w>
fore head</w>
f arm</w>
ev ol
ery body</w>
episo de</w>
end or
ef s</w>
e d
di ence</w>
d ine</w>
comple tely</w>
com pre
climb in</w>
clien tele</w>
cin na
cho ices</w>
ca rats</w>
c leveland</w>
br ung</w>
bl end</w>
ba gged</w>
b m</w>
attra ction</w>
ar r
ac tive</w>
ac qu
9 7</w>
8 9</w>
who m</w>
vo cals</w>
v ans</w>
ty ler</w>
tri f
to ting</w>
ti le</w>
te stin</w>
swea ts</w>
sw ine</w>
suspi cious</w>
styro foam</w>
sto ppable</w>
sta ff</w>
spea ks</w>
so ak</w>
sl anging</w>
sin gles</w>
sh ou
sh ank</w>
sco tch</w>
s wish</w>
s mu
s can</w>
rout ine</w>
roa ch</w>
ro man</w>
ro be</w>
reminisc ing</w>
re call</w>
r im</w>
por tra
pl ush</w>
ph il</w>
perfe ction</w>
on ing</w>
n it</w>
multip ly</w>
mu tha</w>
mp tion</w>
mon d</w>
mini mum</w>
min or</w>
milli meter</w>
mexi co</w>
m hm</w>
lo af
lea ding</w>
kno whati
ken ne
ja ckets</w>
j oo
hoo ks</w>
ho sti
h en</w>
glo bal</w>
for bes</w>
exist ence</w>
er ies</w>
e ddie</w>
dep ends</w>
dar ker</w>
cut lass</w>
cu ffed</w>
crow ds</w>
con stru
compe tit
com bat</w>
clo ckin</w>
christi ans</w>
cei lin</w>
c ly
bu mped</w>
bra ggin</w>
bi z
ben zes</w>
bea rd</w>
be l
be have</w>
be coming</w>
ba lla
authen tic</w>
ar f</w>
ameri cas</w>
al u
a dren
vul tures</w>
v as</w>
up stairs</w>
un stoppable</w>
tur y</w>
trou ble
tri be</w>
toa ster</w>
ti sh</w>
tele phone</w>
suc cess
stra tion</w>
stain less</w>
sta kes</w>
so oner</w>
so le</w>
sla ppin</w>
ska te
scor in</w>
sche du
s or</w>
re ve
ra ys</w>
ra p
ra mbo</w>
r ank</w>
pla ced</w>
pin ch</w>
per haps</w>
pean ut</w>
o ts</w>
o logy</w>
nigg ers</w>
ne ts</w>
mu ham
mor n</w>
moon light</w>
mix in</w>
mi sses</w>
mar gie
m pe
liqu id</w>
kid din</w>
ke ith</w>
it o</w>
in secure</w>
in fo</w>
imma culate</w>
i cs</w>
hu mp</w>
he ights</w>
genu ine</w>
g ton</w>
g ling</w>
fli ps</w>
fai lure</w>
e dition</w>
distri ct</w>
di ssing</w>
destin ation</w>
dea d
de cent</w>
day light</w>
craw lin</w>
cou p</w>
conf use</w>
cen tury</w>
ce ts</w>
car tier</w>
ca red</w>
beha vior</w>
bea ter</w>
be gins</w>
back woods</w>
ba llo
arri ved</w>
all er
ag ent</w>
8 0
3 rd</w>
zi lla</w>
writ er</w>
wre st
wor m</w>
wig gle</w>
wan g</w>
wa kin</w>
v ine</w>
ur ed</w>
ur ban</w>
un a</w>
tur n
tu es
ton gues</w>
sta ges</w>
st all</w>
spot light</w>
sp er
sna p
sal sa</w>
s so</w>
rea rr
re per
re cru
pun ch
price less</w>
poten tial</w>
ph a</w>
pati ently</w>
pa ds</w>
oc to
muham mad</w>
muh fucka</w>
mir rors</w>
me mp
ma donna</w>
la p
la ces</w>
ja ys</w>
infra red</w>
in iti
hei di</w>
hea da
good ness</w>
gene sis</w>
fr igh
fr ig
for med</w>
fea ther</w>
fanta stic</w>
dyna mite</w>
do cu
di stra
di men
da de</w>
consi dered</w>
cho king</w>
cher ish</w>
chea tin</w>
cap ture</w>
bro om</w>
boo ze</w>
bi an</w>
be hold</w>
ba ts</w>
ba len
ba it</w>
au thor</w>
an kle</w>
alcoholi c</w>
adren aline</w>
young ins</w>
wi lly</w>
wea kness</w>
voo doo</w>
v i</w>
v ex
tro op
touch down</w>
ti ous</w>
tea ms</w>
ta doe</w>
swo llen</w>
swa p</w>
surr oun
su dd
stit ches</w>
stabb ed</w>
squ ea
spo iled</w>
spa z</w>
sp here</w>
sig ning</w>
sha dows</w>
sen se
sen sa
rus sian</w>
reminisc in</w>
recor ding</w>
re move</w>
r ly</w>
pri se</w>
prea chers</w>
politi cal</w>
po les</w>
pi ssin</w>
pee led</w>
peace ful</w>
pea ch</w>
para ly
pa blo</w>
oug her</w>
ona ires</w>
musi cal</w>
metha zine</w>
me ds</w>
li an</w>
le on</w>
ken ny</w>
k ins</w>
in her
hu n</w>
ho va
ha lle</w>
grave yard</w>
gradu ate</w>
grabb in</w>
god father</w>
gimmi ck</w>
ga tion</w>
fra u
fanta sies</w>
ele mentary</w>
el ite</w>
el ds</w>
ear rings</w>
dod ging</w>
do ll</w>
do ck</w>
diffi cult</w>
d da</w>
cy pher</w>
ct ful</w>
conce ited</w>
caly pse</w>
butter fly</w>
bar ry</w>
b c</w>
ax e</w>
atlan tic</w>
arrog ant</w>
ar a</w>
al pha
ado le
addi cts</w>
ackno wledge</w>
ac ts</w>
9 4</w>
7 th</w>
x ious</w>
wor n</w>
wit ch</w>
whit ney</w>
we b</w>
warri ors</w>
wa i
viet nam</w>
un cles</w>
tw in
tun ed</w>
tra ining</w>
tin ts</w>
ter a</w>
techni que</w>
t tie</w>
su b</w>
stur ba
str anded</w>
sto mped</w>
ste ering</w>
star d</w>
sta mp</w>
spira tion</w>
situ ations</w>
si mon</w>
se ly</w>
sa ints</w>
sa il</w>
relation ships</w>
ree bo
quee ns
queens bridge</w>
quarter back</w>
pr on
po sters</w>
pee pin</w>
part na</w>
p iti
or ary</w>
nine teen</w>
nick name</w>
ni sh</w>
ne s
murder ers</w>
muh fuckin</w>
medi cs</w>
me mbers</w>
man sions</w>
ma sturba
li ds</w>
la ughter</w>
la cking</w>
l ens</w>
knu ckle</w>
j on</w>
it or</w>
in to
im pro
ho mage</w>
helicop ter</w>
har ry</w>
ha tt
gram mar</w>
go ver</w>
foun tain</w>
ff ins</w>
f ers</w>
e lle</w>
de man
d v
d ey</w>
cor rup
coo ling</w>
com ra
cla rk</w>
cho kin</w>
chea ted</w>
che er</w>
ce o</w>
br rr
bl at</w>
bir kin</w>
bank head</w>
balen ci
ba kin</w>
ba ggin</w>
ba cardi</w>
aw ful</w>
amm un
a di
a bra
8 s</w>
8 6</w>
2 6</w>
y n</w>
wi ck</w>
w ires</w>
ver i
under wear</w>
to days</w>
th fully</w>
ten ing</w>
temp tation</w>
tech s</w>
ta ller</w>
sudd enly</w>
ster n</w>
spa n</w>
sh hh</w>
sh an
sal ty</w>
rubb er
ri can</w>
restaur ant</w>
rea ction</w>
re pe
ran ts</w>
ra rely</w>
pri est</w>
pou rs</w>
po p
pi ano</w>
pe dig
patro l</w>
pa l</w>
ni cke
mar cy</w>
man u
ma mma</w>
ma cs</w>
li cking</w>
l ye</w>
k won</w>
k evin</w>
insur ance</w>
hou sing</w>
holl ering</w>
hh hhh</w>
h end</w>
gr ant</w>
gho sts</w>
fo s</w>
fa u
equ als</w>
easi er</w>
ea gles</w>
e w</w>
e cho</w>
drow ning</w>
do lla</w>
dm x</w>
dig gy</w>
desp erate</w>
denti st</w>
demi se</w>
da ta</w>
d unk</w>
d ney</w>
cra dle</w>
claim ed</w>
chri sto
chas er</w>
ca sa</w>
bu ster</w>
blur ry</w>
blu r</w>
bit ch
bi an
believ ed</w>
be tty</w>
au di</w>
ama zed</w>
accompli shed</w>
a mp
a ali
wa ving</w>
vir gin
v u</w>
ty coon</w>
trou bled</w>
thri ller</w>
thank s
ten se</w>
te sta
ta me</w>
sy mp
sun g</w>
stu dents</w>
strugg ling</w>
sp oo
sha kes</w>
se cu
sco op
ro me</w>
ro ger</w>
ri bb
repu tation</w>
re tali
prophe cy</w>
produ cer</w>
pla que</w>
pea n</w>
pa ssi
oc ca
nu thin</w>
nor th
noo se</w>
no d</w>
ne gro</w>
na p
na cle</w>
medit ate</w>
me ssages</w>
man da
lo cker</w>
lli s</w>
liber ty</w>
li cked</w>
kha n</w>
k ir
in stant</w>
hook ers</w>
henne ssey</w>
ha bit
ge tter</w>
gamb ino</w>
g ery</w>
fin er</w>
ea red</w>
don uts</w>
di pping</w>
de parted</w>
de fi
d ani
color ed</w>
co co</w>
cly de</w>
climb ing</w>
cir cus</w>
chi lly</w>
ce lly</w>
ca ller</w>
bru ise</w>
box ing</w>
biscu it</w>
balenci ag
ba dge</w>
ba cked</w>
attemp t</w>
at l</w>
ad just</w>
ac tual</w>
9 11</w>
ye h</w>
y l</w>
y an</w>
willi ams</w>
whisk ey</w>
wanna be</w>
wait ress</w>
wa vy</w>
w i</w>
vex ed</w>
u sher</w>
tues day</w>
tu r</w>
tra iler</w>
tou rs</w>
th ed</w>
te sted</w>
te qui
ta te</w>
ta ke
ta b</w>
t us
t im</w>
t che
swi f
sur ren
stu mble</w>
ssi e</w>
spo kes</w>
sn eeze</w>
sl ur
sin ger</w>
run ners</w>
rev ea
represen ting</w>
re sume</w>
ra ped</w>
poi son
po st
pit chin</w>
paja mas</w>
pa sses</w>
oug ie</w>
ob viously</w>
ob ject</w>
o va</w>
n ings</w>
mur ked</w>
mi ckey</w>
men ted</w>
melo dy</w>
medi cal</w>
lu ci
lo sses</w>
kur upt</w>
ka ble</w>
inve stig
increa se</w>
in spire</w>
imagin ation</w>
haun ted</w>
h mmm</w>
gue ssin</w>
gr its</w>
gan gs</w>
fee ding</w>
fa ction</w>
exerci se</w>
euro pean</w>
enter tain</w>
emo tion</w>
e stee
e gy
du sty</w>
don alds</w>
dol ce</w>
deca tur</w>
da ble</w>
d p
d ous</w>
crui sing</w>
cra ig</w>
cour ts</w>
comple x
com ma</w>
christo pher</w>
chauffe ur</w>
charac ter</w>
c unt</w>
bu gged</w>
ber etta</w>
bar kin</w>
ba sh</w>
as th
arri ve</w>
aro ma</w>
air port</w>
ad vers
5 7</w>
zon in</w>
y knah
wor thless</w>
we lls</w>
ve ts</w>
und re
thro ats</w>
thera py</w>
th under
th rees</w>
tea chin</w>
te sting</w>
te es</w>
tattoo ed</w>
sur gery</w>
su bli
stra w
ss ors</w>
snea ker</w>
sla in</w>
sick est</w>
shel ter</w>
s ity</w>
ren ted</w>
remo te</w>
religi ous</w>
rain ing</w>
ra l
prostitu te</w>
pre ssin</w>
po em</w>
pi ed</w>
person a</w>
pa tion</w>
pa lace</w>
p s
p r</w>
opin ions</w>
o block</w>
muh fuckers</w>
mea ls</w>
listen ed</w>
ligh ting</w>
li zard</w>
li mou
la kers</w>
la ckin</w>
je hova
ja cu
hook er</w>
hatt an</w>
ha lls</w>
gro ss</w>
ghost face</w>
ga lore</w>
f ying</w>
drea d
do ms</w>
de l</w>
dar t</w>
da ts</w>
cur ves</w>
crun ch</w>
cra bs</w>
cor rupt</w>
con y</w>
con cea
cog nac</w>
cigare ttes</w>
cap one</w>
can ce
c iti
bra s</w>
boun cing</w>
ba sket</w>
ammun ition</w>
abor tion</w>
a th</w>
3 2</w>
ye e</w>
wi shed</w>
wea rs</w>
ve lo
v ital</w>
un known</w>
un h</w>
tri llion</w>
tr in
tion ary</w>
tequi la</w>
su shi</w>
sti mu
ste er</w>
sprin kle</w>
spo il</w>
sof ter</w>
sla mmin</w>
sk ys</w>
si zed</w>
shar per</w>
sa g</w>
s words</w>
s up</w>
rubb ers</w>
ru shed</w>
reli ef</w>
re st
re mix</w>
produ ction</w>
pro methazine</w>
pre y</w>
p ear
ner d</w>
n at</w>
mur ders</w>
mu sta</w>
mp ers</w>
mix ing</w>
min a</w>
mil ky</w>
mi che
mexi can</w>
metaph ors</w>
memp his</w>
mara thon</w>
mar cus</w>
man hattan</w>
ma son</w>
m u</w>
lur kin</w>
list s</w>
li s</w>
la ser</w>
king pin</w>
kee per</w>
k at</w>
ir o</w>
infin ity</w>
i raq</w>
hu ddle</w>
ha wa
ha ul</w>
ha n</w>
h ers</w>
gue ssing</w>
gli de</w>
g lance</w>
g ears</w>
fla shy</w>
evi dent</w>
el vis</w>
dis c</w>
dev o
deu ces</w>
de sk</w>
de lete</w>
cro p</w>
cri es</w>
convin ce</w>
colle ction</w>
ce tera</w>
ce l
car bon</w>
camoufla ge</w>
ca ve</w>
ca in</w>
broad way</w>
bi zar
bea r
b is</w>
au dience</w>
anti cipa
achi eve</w>
accoun ts</w>
aali yah</w>
a e
1 87</w>
xan ny</w>
wa ge</w>
val en
va lle
v on</w>
tra vis</w>
to ms</w>
ter rit
t z</w>
swi ss</w>
star ks</w>
squee zing</w>
squ irt</w>
slo wer</w>
sk ed</w>
sin ners</w>
sin ister</w>
sh itted</w>
ser mon</w>
se c</w>
s se</w>
re gal</w>
r ig
pyra mid</w>
pre sen
pre scription</w>
pl ore</w>
piti ful</w>
per mission</w>
pa per
oxy gen</w>
ow ned</w>
op ti
o bli
ne lly</w>
murder er</w>
multi ple</w>
mon keys</w>
mo le
mo bb</w>
mean in</w>
mc donalds</w>
mai l
ma ture</w>
ma chin
lu mp</w>
lu ke</w>
lon g
la tor</w>
jo kin</w>
i ke</w>
hol ster</w>
heart break</w>
graph s</w>
ger man</w>
gentle man</w>
gen o
g h
fu rious</w>
fin an
fi lm</w>
extre me</w>
en core</w>
embarra ssed</w>
el ses</w>
e tte</w>
dum mies</w>
down fall</w>
disrespe ctful</w>
di stant</w>
dea ler
de cor
da llas</w>
cra f
con tent</w>
com ments</w>
chin chi
ch ig
ca using</w>
ca sse
be zel</w>
ba thing</w>
ba in</w>
apologi es</w>
apo llo</w>
amon g</w>
alle gi
a pri
9 3</w>
20 00</w>
z il</w>
z ation</w>
yon es</w>
w ound</w>
trau ma</w>
tra ded</w>
to wns</w>
tha td</w>
th om</w>
te ller</w>
sum thin</w>
stri ppin</w>
stitu tion</w>
ster ed</w>
ski ppin</w>
sk rr</w>
sit ive</w>
scre ws</w>
s ition</w>
ro bert</w>
rela pse</w>
re sort</w>
re side</w>
re play</w>
pp les</w>
pige on</w>
pi vo
pho eni
phoeni x</w>
ph ra
perco cets</w>
pedig ree</w>
pan ther</w>
pan ese</w>
na ted</w>
musli m</w>
min t</w>
milit ant</w>
men tion
mathe matics</w>
m ys</w>
loun ge</w>
ll es</w>
li king</w>
jo king</w>
into xi
in clu
illumin ati</w>
ice berg</w>
i o</w>
i ci
hor ri
he ight</w>
gru dge</w>
gri ps</w>
gri ef</w>
gra pe</w>
gen ie</w>
ge ant</w>
fi ves</w>
f use</w>
estee m</w>
ef fort</w>
dy kes</w>
dre sses</w>
divor ce</w>
divi d
di ly</w>
dep end</w>
den tal</w>
d ded</w>
cou rage</w>
cor on
confi dent</w>
clo t</w>
cal en
billi onaire</w>
bi shop</w>
bever ly</w>
batt le
bar bar
bam boo</w>
bal cony</w>
aband oned</w>
a pes</w>
a ar
yea hhh</w>
wh y
va ult</w>
uni on</w>
un s</w>
un its</w>
u ms</w>
twi stin</w>
tur ner</w>
tin y</w>
thug ging</w>
ten s</w>
tempera ture</w>
tali b</w>
swee ts</w>
sun set</w>
stru t</w>
squ e</w>
spee din</w>
speci fic</w>
son ic</w>
skate board</w>
sk irts</w>
six th</w>
sh y
sh h</w>
sca tter</w>
run ner</w>
ro ll
reven ue</w>
resurre ction</w>
resi dence</w>
re ser
qu ality</w>
promi ses</w>
pro pane</w>
pro dig
pre ssing</w>
po llu
perco cet</w>
pe te</w>
part ments</w>
ne gle
na vig
n n</w>
mu stard</w>
mi ller</w>
me llow</w>
me less</w>
mar ke
ma lly</w>
llow een</w>
lear nin</w>
la und
ki ck
ka trina</w>
j unk</w>
inter views</w>
instin ct</w>
ho g
ha lloween</w>
h itters</w>
h ired</w>
gu ms</w>
gro cer
gri zz
gri lls</w>
graph ic</w>
go wn</w>
glea m</w>
ghe ttos</w>
g lin</w>
g ent</w>
friend ship</w>
follo win</w>
fin din</w>
ffe l</w>
excell ent</w>
ex plore</w>
do te</w>
disc o</w>
dia c</w>
deli c</w>
de cei
da vis</w>
d well</w>
d we
d p</w>
cur tis</w>
cti onal</w>
cla sh</w>
cho pping</w>
ca te
c c</w>
baby lon</w>
ba rack</w>
at tic</w>
ani um</w>
allegi ance</w>
a vi
a du
a da</w>
4 0
2 7</w>
1 0s</w>
z ers</w>
wr in
we ights</w>
war ren</w>
w ired</w>
w at</w>
un ky</w>
u ti
tri cking</w>
to pless</w>
testi fy</w>
temp orary</w>
t ans</w>
suc ceed</w>
stu y</w>
spo tted</w>
sp ite</w>
so li
slu mp</w>
shar ing</w>
sh outs</w>
ser ial</w>
sen sitive</w>
scrip ture</w>
sc rub</w>
ri kers</w>
revol ver</w>
remin ded</w>
re y</w>
pur ses</w>
pu mped</w>
promo ters</w>
on in</w>
ob serve</w>
o u</w>
o scar</w>
nar cs</w>
mu thafuck
mi ce</w>
metaph or</w>
me m</w>
mbo s</w>
mana ger</w>
ll in
li ars</w>
ka rats</w>
k u</w>
k out</w>
intellig ence</w>
in spiration</w>
in fil
in fer
imper ial</w>
i ze</w>
i cal</w>
hu ge</w>
how d</w>
hosti le</w>
ho od
hesit ation</w>
goo fy</w>
glo wing</w>
ga p</w>
foo led</w>
flo yd</w>
fee din</w>
ex hau
ex hale</w>
enter ed</w>
ele ment</w>
e sti
dr an
con stant</w>
compre hend</w>
comfor t</w>
chi lds</w>
ch ka</w>
cata stro
care ers</w>
c tual</w>
c ere</w>
bu gging</w>
bra zy</w>
bra zil</w>
bon nie</w>
blin ds</w>
bi polar</w>
beli ever</w>
be lts</w>
bb ed</w>
bar tender</w>
assho les</w>
app ear
ani e</w>
an kles</w>
aller gic</w>
a ura</w>
a gon
a do</w>
a bi
8 th</w>
vo c</w>
vi lla</w>
ver t</w>
un cut</w>
twea kin</w>
to ma
ti mba
ter m</w>
sym pathy</w>
suffer ing</w>
stin kin</w>
stal k</w>
stain ed</w>
spe ct</w>
sp ree</w>
some day</w>
sna ppin</w>
sh ment</w>
se lls</w>
sa una</w>
ro ssi</w>
recor ded</w>
re clin
ra ces</w>
pur suit</w>
pu ppy</w>
po pe</w>
pir u</w>
pi ssing</w>
physi cally</w>
passi on
p sy</w>
ob se
o hhhh</w>
nood les</w>
ne sia</w>
n ons</w>
mour n</w>
mou th
me tro</w>
me ssing</w>
ma thers</w>
lyn ch</w>
lo cation</w>
le tte</w>
laur yn</w>
kno w
ki ll
ju li
ja cking</w>
j ive</w>
in visible</w>
in vin
high ness</w>
har mony</w>
har ley</w>
gy al</w>
gui lt</w>
god dess</w>
glor ious</w>
four teen</w>
fi shes</w>
fi ending</w>
fe tish</w>
earthqua ke</w>
e z</w>
e sta
dun n</w>
du ba
duba i</w>
di stor
di plo
determin ed</w>
destro yed</w>
dealer ship</w>
criti ci
cra zi
cor oner</w>
consequ ences</w>
con test</w>
complex ion</w>
co ffins</w>
ck led</w>
cho ps</w>
cau ca
car toon</w>
c ence</w>
bull shittin</w>
bu gs</w>
box ers</w>
boun ced</w>
bo m
blo w
believ able</w>
aude mar</w>
analy ze</w>
amoun ts</w>
ad ven
a ah</w>
9 th</w>
10 0
yi ppie</w>
way nes</w>
wal ker</w>
vo gues</w>
vict or
va li
unfor tun
u u</w>
u li
u hhh</w>
twer kin</w>
trouble some</w>
tr end</w>
ti an</w>
thr ee
t z
t ve</w>
str ung</w>
sta tue</w>
sta mps</w>
spi lling</w>
spar ks</w>
soo pa
sna pping</w>
sna ck</w>
slo wed</w>
sin cere</w>
si m
se wed</w>
sc ru
satis faction</w>
s mea
s ant</w>
ru sty</w>
ru shin</w>
roof top</w>
ro zay</w>
ri chest</w>
resurre ct</w>
ran som</w>
qu in
pur sue</w>
po sit</w>
po sin</w>
pi ped</w>
photo s</w>
per m</w>
pea s</w>
pe di
pay roll</w>
out chea</w>
op erate</w>
nicke ls</w>
na use
mothafuck er</w>
ma la
m our</w>
m j</w>
lur king</w>
lo cs</w>
lim ited</w>
lif ting</w>
li me
la mar</w>
k y
jan et</w>
j en
her bs</w>
hel ping</w>
hea vi
ha voc</w>
gra vity</w>
ga ll
fu me</w>
frank lins</w>
fasc in
ever yones</w>
ea st
e in
dope st</w>
do ve</w>
disc re
desp ise</w>
de posit</w>
cri sis</w>
confli ct</w>
co bain</w>
cla y</w>
cl ones</w>
brace lets</w>
bill board</w>
bee per</w>
be tcha</w>
an ony
an ita</w>
ag gra
ac tress</w>
a stron
zi e</w>
za g</w>
wh ir
wa vin</w>
villa ins</w>
v als</w>
ton ights</w>
territ ory</w>
ta y</w>
swee test</w>
swea ty</w>
suspe ct</w>
survi vor</w>
surren der</w>
sur geon</w>
success ful</w>
su mo</w>
stra w</w>
sto mpin</w>
state ments</w>
splitt in</w>
spee ding</w>
spe ctive</w>
snow man</w>
smo key</w>
side walk</w>
sh im
sen ti
sa vin</w>
sa mmy</w>
sa ks</w>
s lot</w>
ru ined</w>
ri sing</w>
ran dy</w>
ra g
ra e
preci se</w>
pre da
pige ons</w>
ph er
pen s</w>
pear ls</w>
pa sta</w>
p js</w>
occu pation</w>
nee din</w>
mu te</w>
mu ggin</w>
mo tive</w>
mo ss
mis demeanor</w>
mill enni
men tals</w>
me lon</w>
may day</w>
mar ve
maneu ver</w>
ma u
lo tion</w>
ll ys</w>
lin go</w>
lif fs</w>
je t
invin ci
individu al</w>
in tro</w>
ill usion</w>
ii i
i si
hug gin</w>
hi de
hall ways</w>
ha y</w>
gra ff
good night</w>
go ti
g z</w>
fa ker</w>
fa des</w>
er e
en ga
e sta</w>
e sco
du pli
divi ded</w>
dig gers</w>
deli cious</w>
dece ive</w>
da mag
da ds</w>
cross roads</w>
comb ined</w>
com posure</w>
clu tchin</w>
chan deli
cha po</w>
ca da
c one</w>
bu mper</w>
bo ar
blo cked</w>
blin d
basi cs</w>
ba sis</w>
avo i
ar sen
apri l</w>
anony mous</w>
30 5</w>
zz ard</w>
wr ongs</w>
vo id</w>
vani sh</w>
val u
va p
twi light</w>
trea tin</w>
tra ins</w>
to wers</w>
to dd</w>
ti min</w>
ti lt</w>
thi ck
terro ri
ter ry</w>
ten do</w>
te m</w>
te ls</w>
sug ge
subli min
su ff
stu bb
sta ts</w>
spra ying</w>
sp its</w>
sp ins</w>
sp ice</w>
snu ck</w>
smo ker</w>
sla ck</w>
sk atin</w>
sei z
sa ge</w>
s ine</w>
ro llers</w>
respon se</w>
repla ced</w>
re scu
re len
re incar
ral ph</w>
pro to
pro file</w>
pre va
posse ss</w>
pors ches</w>
popu lation</w>
pol ite</w>
po cus</w>
passion ate</w>
para medics</w>
par ker</w>
p he</w>
or n</w>
o wed</w>
mp y</w>
mm mm</w>
missi les</w>
missi le</w>
min ks</w>
mi chig
michig an</w>
master mind</w>
man tle</w>
ma tching</w>
ma mis</w>
ma dden</w>
ma car
laund ry</w>
labe led</w>
la sting</w>
la ps</w>
knee l</w>
k un
je w</w>
ja da</w>
it is</w>
it in</w>
ir ri</w>
invinci ble</w>
ho st</w>
head phones</w>
he ed</w>
hand les</w>
gri mey</w>
grand mother</w>
graff iti</w>
gir lies</w>
fun erals</w>
fro st</w>
fri dge</w>
free zer</w>
fle a</w>
fir es</w>
fif ties</w>
fea thers</w>
fe min
fa kers</w>
f aint</w>
eter nity</w>
escala de</w>
emplo yed</w>
e ld
e es</w>
dru mmer</w>
dro p
dra stic</w>
don key</w>
def end</w>
de x</w>
de ter
dan cers</w>
da i
cru mble</w>
cro s
contem pla
consi st
co o</w>
clean er</w>
chea per</w>
c lit</w>
bra gging</w>
boun ds</w>
bo ast</w>
bizar re</w>
bi dness</w>
aude mars</w>
amate ur</w>
a hs</w>
a bility</w>
9 2</w>
7 0s</w>
writ ers</w>
wil dest</w>
whee lie</w>
we d
wa shin
wa p</w>
vi ck</w>
us a
ty pical</w>
tur tle</w>
trou bles</w>
tran sla
to my</w>
ti ma
ti est</w>
thanks giving</w>
temp o</w>
te ddy</w>
tche ts</w>
ta stes</w>
swo ll</w>
sur f</w>
straw berry</w>
stand ard</w>
sta ke</w>
squ ash</w>
silen cer</w>
shar ed</w>
sha k
sava ges</w>
ri val</w>
regi me</w>
re de
rain y</w>
prophe ts</w>
po m</w>
play ground</w>
pi cks</w>
pi ca
pene trate</w>
pan a
p m</w>
over time</w>
oppon ents</w>
nin tendo</w>
nes see</w>
narco tics</w>
milli onaires</w>
mi stress</w>
manda tory</w>
ma ted</w>
ma di
low key</w>
lime light</w>
li k
laugh s</w>
la ting</w>
la mp</w>
l ons</w>
kur t</w>
ji zzle</w>
ja mmin</w>
it ching</w>
intelle ct</w>
in si
i zed</w>
hy per</w>
hust la</w>
hun ting</w>
ha unt</w>
h on</w>
gri pping</w>
gr ounds</w>
goo gle</w>
g ment</w>
g it</w>
fen ces</w>
fabri c</w>
fa tter</w>
ex tin
ea ster</w>
e hh</w>
dra ped</w>
divid ends</w>
dig ger</w>
der ing</w>
de scription</w>
cut throat</w>
cr ank</w>
conver ti
cha os</w>
can nons</w>
c re</w>
c co</w>
bu t
bu mmy</w>
bro ok</w>
boo ted</w>
back stage</w>
ba lled</w>
ba ha
b sters</w>
anti dote</w>
an der</w>
alpha bet</w>
after noon</w>
acti vi
a ug
a the
a lig
6 00</w>
4 00</w>
z ys</w>
woo d
wo bble</w>
wait er</w>
vir us</w>
vi si
v ar
und ress</w>
u mp
thro ws</w>
th igh</w>
ten nessee</w>
ta tions</w>
swi pe</w>
supp er</w>
straigh ten</w>
sta shed</w>
smo kers</w>
six es</w>
sin kin</w>
sho ps</w>
sha tter</w>
sex in</w>
sev enty</w>
scrip ts</w>
scho lar
schedu le</w>
sai lor</w>
sa l</w>
s lea
s its</w>
s d</w>
ru g
rebe ls</w>
real ness</w>
rea ds</w>
re ti
rae kwon</w>
pun ched</w>
pu zzle</w>
pu ts</w>
pu ffing</w>
prea ching</w>
pr onto</w>
pow ered</w>
po pe
pi cky</w>
par lay</w>
par ks</w>
pain ting</w>
pa w</w>
p ent</w>
osa ma</w>
or mous</w>
ni g</w>
ni c</w>
na tion
n early</w>
mer ry</w>
me du
loa din</w>
ll ll
lea thers</w>
kha led</w>
k as</w>
ju mps</w>
isl ands</w>
incar cer
in na</w>
idi ot</w>
i v</w>
hy dro</w>
hu man
gr a</w>
god zilla</w>
go lds</w>
ge ms</w>
gar ments</w>
for given</w>
fla va</w>
fi elds</w>
f fa
esta bli
ee m</w>
dra co</w>
dish on
di vision</w>
den nis</w>
de tox</w>
cur tain</w>
cru cial</w>
cri spy</w>
co pper</w>
choo sin</w>
chi ef
chemi cal</w>
cen ter
caro l</w>
ca bin
bubb ly</w>
bra i
bra d</w>
bo ing</w>
bee fing</w>
bag gage</w>
att or
ar man
ar k</w>
ar enas</w>
am nesia</w>
agon y</w>
ada pt</w>
accu rate</w>
a qu
z ones</w>
z is</w>
w u
w ning</w>
w is</w>
ven ge
va mp
tt as</w>
tro j
to ll</w>
ti ckle</w>
thor ough
the od
theod ore</w>
the irs</w>
tex ts</w>
tex ting</w>
terro rist</w>
tee n
ta ped</w>
t it</w>
swi sha</w>
swer ving</w>
swan gin</w>
survi vin</w>
subur ban</w>
sty list</w>
ster o
squ eal</w>
sp un</w>
sp itter</w>
sof tly</w>
soa ked</w>
so m
so le
snoo ze</w>
sni ffing</w>
snea ky</w>
sna tchin</w>
sit ter</w>
sin cer
sig nin</w>
side kick</w>
sick en
senten ces</w>
sa ggin</w>
s lightly</w>
ry an</w>
ro de
ro ar</w>
resi due</w>
refle ct</w>
ra tchets</w>
provo ke</w>
pro pe
poe ms</w>
ple a</w>
pin ea
phar ma
per spective</w>
pe lle</w>
parano ia</w>
pa pes</w>
oppon ent</w>
oppo sition</w>
mo ss</w>
mis understood</w>
me da
maxi mum</w>
massa cre</w>
ma tches</w>
ma shin</w>
lyri cist</w>
lu lla
lo so</w>
ligh tin</w>
li mbs</w>
le s
la tes</w>
la den</w>
ki llah</w>
ja zz</w>
ja panese</w>
j as</w>
itt a</w>
it als</w>
inter view</w>
impa ct</w>
im mortal</w>
i ously</w>
hypo cr
hone y
ho ward</w>
ho lo
ho cus</w>
gun play</w>
gui dance</w>
gueri lla</w>
gli mp
g ou
g em</w>
felon ies</w>
fe es</w>
eye lids</w>
exp and</w>
ex or
en ligh
du kes</w>
dri vers</w>
dri f
disp u
dig i</w>
dig est</w>
dea ths</w>
de w</w>
da b</w>
d dies</w>
d c</w>
cu ba</w>
cra y</w>
com b</w>
co co
clo thing</w>
clo sure</w>
clean ed</w>
cla us</w>
ci ally</w>
chir p</w>
chi raq</w>
chee ba</w>
cha tter</w>
cal cu
ca usin</w>
ca la
c oug
bur gla
blea chers</w>
bee z</w>
be ers</w>
an ten
advan ced</w>
accep ted</w>
ab sur
a va
a quar
zz ou</w>
yy y</w>
xan ax</w>
x x</w>
ww ww
wre cked</w>
wi cke
we st
war fare</w>
vi sit
valle jo</w>
va tions</w>
va cu
ul tra</w>
tro op</w>
to ward</w>
tin o</w>
timba land</w>
thro ttle</w>
stu died</w>
stron gest</w>
sto cks</w>
ste war
ste st</w>
stan ces</w>
spar kle</w>
son ny</w>
sn are</w>
sk rilla</w>
sit es</w>
shrin k</w>
sen ses</w>
se ttin</w>
se in</w>
screa med</w>
san dals</w>
s warm</w>
s light</w>
ro gue</w>
ri b</w>
reg ard</w>
rec line</w>
raz ors</w>
ra tion</w>
quo tes</w>
por ts</w>
pi ckle</w>
par ent</w>
ou tra
on line</w>
offi shall</w>
o me</w>
nu tty</w>
ni cest</w>
nar row</w>
mi lly</w>
mee ch</w>
may hem</w>
marve lous</w>
mari ah</w>
lu tion</w>
lle ts</w>
ll z</w>
lin ess</w>
ligh ters</w>
le gged</w>
lau ren</w>
kan go
jack ie</w>
in come</w>
hu m</w>
hand cuffs</w>
gui llo
grizz ly</w>
geno cide</w>
g wop</w>
fu rs</w>
frea king</w>
fa tty</w>
f l</w>
engin e
elo pe</w>
ein stein</w>
e ment</w>
di ct</w>
dea rly</w>
cur rent</w>
counter feit</w>
convi ct</w>
conversa te</w>
commit ment</w>
colli de</w>
choo sing</w>
char t</w>
cha m</w>
ca mp
ca mel</w>
bub blin</w>
bu shes</w>
bon ds</w>
bo gus</w>
bi llie</w>
bar ri
ban ner</w>
b ers</w>
at mo
argu ing</w>
an i</w>
an gu
agen da</w>
a h
a ck</w>
a che</w>
ya self</w>
wor r
w right</w>
w nin</w>
venge ance</w>
ve s
va cant</w>
ur us</w>
un believable</w>
tru ce</w>
trave ling</w>
tr ance</w>
teen th</w>
ta ppin</w>
t ow</w>
sy stems</w>
swea t
sw ung</w>
stri pped</w>
stree t
str ange
ste p
st itch</w>
ss ert</w>
squee zin</w>
sp ouse</w>
so lo
ski pped</w>
sin ning</w>
sin gs</w>
sca m</w>
sal vation</w>
ro tation</w>
ro dney</w>
rif les</w>
rhy mer</w>
rev eal</w>
relen tless</w>
rea p</w>
ra ra</w>
ra dar</w>
q s</w>
pul se</w>
profe ssor</w>
pri ck</w>
pre cin
poin tin</w>
po o</w>
plan nin</w>
philoso phy</w>
perfor man
per fume</w>
pen alty</w>
pede stal</w>
para chu
pa thetic</w>
pa irs</w>
over due</w>
oo o
oc cur
obe y</w>
ny mp
nor mally</w>
no va</w>
medi cation</w>
may weather</w>
mache te</w>
ma sta</w>
loaf ers</w>
lo ft</w>
limou sine</w>
lif tin</w>
lif ied</w>
la yed</w>
kni cks</w>
kin folk</w>
k ung</w>
ja b</w>
j ure</w>
inter ior</w>
indi cted</w>
i ri
i lly</w>
hypnoti zed</w>
hus sein</w>
hun na</w>
hor i
ho ws</w>
hen ch
heada che</w>
he he
h ren
gre g</w>
gra pes</w>
gol die</w>
fu ry</w>
fro g</w>
foo lin</w>
fi ji</w>
ferra ris</w>
fee lins</w>
far ra
fa gs</w>
ex pression</w>
en velo
en ced</w>
du mb
drea m
dis cover</w>
di p
cru el</w>
cri sp</w>
con gre
co pping</w>
co in</w>
co ch
cli mate</w>
cha irs</w>
ch it</w>
can ary</w>
cam pus</w>
ca ged</w>
bu ffa
brit ney</w>
bri lli
ben din</w>
ba tter</w>
ba ker</w>
ba gue
b anged</w>
auto matics</w>
ath le
appla ud</w>
appar ently</w>
ann oun
absur d</w>
aar on</w>
a lex
4 8</w>
zz les</w>
z on</w>
yea r
y m</w>
vi vi
ur ge</w>
u g</w>
twi sting</w>
tu x</w>
tru thfully</w>
tri cked</w>
tri als</w>
trans form</w>
tr unks</w>
too th
ton ite</w>
ti de</w>
thra x</w>
tar gets</w>
ta vis</w>
sun rise</w>
stra ted</w>
sta tions</w>
st les</w>
sma ller</w>
slu mped</w>
sea son
scho lar</w>
sca les</w>
s woo
s to</w>
s q
s ley</w>
ru mor</w>
rela tives</w>
re minds</w>
re dee
pro mo</w>
prin ci
pri vi
por tion</w>
po kin</w>
plu gged</w>
per su
per ky</w>
p ony</w>
p early</w>
o ye</w>
nu mer
nause ous</w>
na tive</w>
mon a</w>
mo ck</w>
mi ld</w>
mer ci
me dus
mag nifi
macar oni</w>
ma sks</w>
ma je
m d</w>
lon e
li eu
lieu ten
lar ger</w>
land ing</w>
in sides</w>
i ms</w>
hun tin</w>
hea ts</w>
han gover</w>
haiti an</w>
haha hahaha</w>
ha mp
ha iti</w>
gra cious</w>
go sh</w>
gimmi cks</w>
fu mble</w>
fron ts</w>
fol ds</w>
fi shing</w>
fe llow</w>
fa thom</w>
fa cade</w>
every thang</w>
ev o
end less</w>
en ormous</w>
ea ger</w>
e ing</w>
du cked</w>
dri bble</w>
dope man</w>
dogg y
dis gui
de ssert</w>
de er</w>
de c
da ting</w>
cr o</w>
cour t
converti ble</w>
congratu lations</w>
con spira
con sci
cli ques</w>
cin der
champi ons</w>
celebra ting</w>
casse tte</w>
carr ying</w>
can vas</w>
cali ber</w>
calen dar</w>
ca ting</w>
ca int</w>
c table</w>
bubb les</w>
bri ef</w>
blo ckin</w>
black out</w>
bla cker</w>
bl ouse</w>
bit chs</w>
bb er</w>
baha mas</w>
ba che
b k</w>
atmo sphere</w>
as soci
an ic</w>
am bi
al pha</w>
a we</w>
a tri
9 8</w>
6 th</w>
6 9</w>
3 d</w>
2 pa
10 0s</w>
zz o</w>
yo r
ye lla</w>
un fold</w>
tw at</w>
try ina</w>
tra dition</w>
tit anic</w>
ti pping</w>
thri lls</w>
ter ms</w>
techni ques</w>
tea rin</w>
tan ks</w>
sun roof</w>
stubb orn</w>
sto ck
stan kin</w>
sta mina</w>
sme lls</w>
sli cker</w>
shor ter</w>
ser k</w>
sea led</w>
se wer</w>
se tting</w>
scor pi
sa v
sa rah</w>
ru gers</w>
ro sa</w>
rememb ered</w>
re treat</w>
re quest</w>
ra ttle</w>
ra men</w>
r hin
pun i
prote cted</w>
pro gra
prison ers</w>
posse ssed</w>
plan ets</w>
pica sso</w>
pi pp
per ry</w>
per cen
p lex</w>
o ther
mouth piece</w>
missi ons</w>
ma m
ma cks</w>
m v
lo ckin</w>
li est</w>
li cal</w>
lea r</w>
laur ent</w>
la yers</w>
la ker</w>
l ities</w>
l bc</w>
kno b</w>
jun kies</w>
ju dges</w>
je sse</w>
inno cence</w>
in ha
in fli
in er</w>
hy ped</w>
hoo dies</w>
he a</w>
hara ss</w>
gra s</w>
glimp se</w>
ff les</w>
fe bru
eras ed</w>
en tre
edu cated</w>
e ll</w>
du mped</w>
drow nin</w>
disa gree</w>
di ary</w>
deli very</w>
de lay</w>
cr ow</w>
cond itions</w>
con doms</w>
clou dy</w>
cli cks</w>
chinchi lla</w>
chemi st</w>
chain saw</w>
cer tain
cara mel</w>
car ni
can ada</w>
ca t
ca bin</w>
bu tcher</w>
br eezy</w>
bo il</w>
ben zo</w>
band z</w>
ban da
back up</w>
ba gging</w>
b ougie</w>
an cient</w>
af fair</w>
5 5</w>
1 3
z ens</w>
young sters</w>
ya ppin</w>
x s</w>
wild ing</w>
why lin</w>
whee l
wea lthy</w>
war rant</w>
wa sa
vis its</w>
vel vet</w>
ti vity</w>
the ory</w>
the ft</w>
th as</w>
tai lor</w>
ta way</w>
ta dor</w>
ta ct</w>
t ance</w>
sy lla
super ior</w>
suit case</w>
suffer in</w>
strugg les</w>
stal kin</w>
sta ti
sta dium</w>
sp readin</w>
sin king</w>
shak ur</w>
sha llow</w>
sensa tion</w>
see kin</w>
scrip tures</w>
scra tched</w>
sci ssors</w>
sad dam</w>
sa ga</w>
s ounded</w>
s l</w>
ru s</w>
ro ts</w>
ro sco
rescu e</w>
rep lied</w>
re se
ra m
quick ness</w>
psycho tic</w>
pri sons</w>
por no</w>
po of</w>
pit ching</w>
piran has</w>
phi sti
pee ped</w>
pe p
p ts</w>
opp re
op era
obsta cle</w>
north side</w>
nin as</w>
ni ds</w>
natu rally</w>
na lly</w>
n ou
mu zzle</w>
motherfuck as</w>
miser able</w>
mi e</w>
mention ed</w>
me dal</w>
mar tian</w>
mag ne
loa ding</w>
lo lli
li vest</w>
l ength</w>
kenne dy</w>
k ys</w>
k lu
ju stin</w>
jo ker</w>
in fa
impa las</w>
i con</w>
hun nids</w>
ho se</w>
hill side</w>
hea ling</w>
hea din</w>
hand gun</w>
gu tta</w>
gree ner</w>
gre y
go dly</w>
glor i
glo win</w>
g litter</w>
g ary</w>
g 4</w>
fresh est</w>
flash backs</w>
flam boy
fl ush</w>
fir ing</w>
fi cial</w>
fe lons</w>
face book</w>
fa ct
fa ci
ev ing</w>
esca ped</w>
equ ality</w>
ener gi
el i</w>
ee e</w>
econo my</w>
e bon
dre ssin</w>
dou g</w>
dev our</w>
dep ths</w>
d ye</w>
cu p
cu ddle</w>
cro ssing</w>
cou ches</w>
conne cts</w>
co la
close ly</w>
clo sin</w>
chi pped</w>
ch unk</w>
ch itty</w>
carr yin</w>
ca ssi
bun dle</w>
bre it
bra ve
bom bay</w>
bo died</w>
bin o
bi sh</w>
bi ds</w>
ben ef
back wood</w>
asth ma</w>
argu in</w>
an xi
aggre ssive</w>
ag ed</w>
advers aries</w>
a isle</w>
8 4</w>
5 1</w>
0 5</w>
zom bies</w>
zi on</w>
z en
ya k</w>
y ards</w>
wi der</w>
wee ded</w>
wai st
w ls</w>
visu al</w>
virgin ia</w>
vacu um</w>
v ita
use pp
under rated</w>
uli cs</w>
tw ir
tt ering</w>
trig ga</w>
too lie</w>
tomor rows</w>
to k
ti mid</w>
tho mas</w>
th ear
teena ge</w>
swee thear
sun s</w>
stand ards</w>
sp ank</w>
sin a
shor tys</w>
shar in</w>
sha w</w>
sha dys</w>
ser ena</w>
se t
se p
sa c</w>
s qui
ru shing</w>
rode o</w>
ro vers</w>
ro tt
ri ff</w>
relax in</w>
reali stic</w>
re ment</w>
re frig
re du
ra keem</w>
pus s</w>
psychi c</w>
pro gre
pr ene
pi mped</w>
pi ff</w>
pi cket</w>
phra se</w>
pee k</w>
pat na</w>
pa m</w>
p ly</w>
outra geous</w>
on ion</w>
offer ed</w>
obse ssed</w>
nood le</w>
no lia</w>
murder ing</w>
motha fucking</w>
moss berg</w>
mo bster</w>
min ated</w>
millenni um</w>
mari lyn</w>
machin es</w>
ly m
lo o</w>
len ses</w>
la va</w>
k ast</w>
jo ey</w>
jehova h</w>
it os</w>
intere sted</w>
in tent</w>
i des</w>
heavi ly</w>
he ck</w>
gu in
grow th</w>
gren ade</w>
gree n
gra ves</w>
go yard</w>
gi usepp
gen tly</w>
ge l</w>
gamb ling</w>
g lit
g d</w>
g 5</w>
fre do</w>
for gave</w>
fl eet</w>
fire works</w>
fire man</w>
femin ine</w>
fe tty</w>
fe tch</w>
eu rope</w>
entre prene
e leg
e in</w>
e dible</w>
drow ned</w>
disp er
dig ga</w>
dia blo</w>
demonstra te</w>
dan ce
d ons</w>
cus sin</w>
critici ze</w>
cre pt</w>
cra tes</w>
cough in</w>
contem plate</w>
confe ssion</w>
con cept</w>
colla rs</w>
coco a</w>
clin ic</w>
chr oni
che ckers</w>
casu alties</w>
cap it
can na
bun dles</w>
bubb a</w>
bran ch</w>
bo mber</w>
blan co</w>
believ ing</w>
beli ef</w>
ba cking</w>
b out
ar row</w>
app ears</w>
apo logy</w>
an ce
am ster
al ter
aim ed</w>
affili ated</w>
a me
8 00</w>
z an</w>
ya ms</w>
xx l</w>
wre stle</w>
wig s</w>
vi a
vap ors</w>
twea king</w>
trave led</w>
tr es</w>
tou ring</w>
ten den
te k
sweethear t</w>
stri pping</w>
stre tcher</w>
ste ph
stal king</w>
st at</w>
soa kin</w>
so lute</w>
so ar
slin gin</w>
sincer ely</w>
si ssy</w>
sha ped</w>
see king</w>
satis fy</w>
sa li
s as</w>
ri sin</w>
ri dah</w>
revolu tionary</w>
reve lation</w>
resu lts</w>
re stri
ra pped</w>
ra f</w>
pu sha</w>
precin ct</w>
pp i</w>
plo ts</w>
pin nacle</w>
phisti cated</w>
pa tty</w>
pa tri
p ment</w>
p ans</w>
over do
other wise</w>
nu t
no ble</w>
na tions</w>
moun t</w>
min ation</w>
mi cal</w>
medus a</w>
medi c</w>
me dia
master piece</w>
manife st</w>
mali ce</w>
main stream</w>
ma ce</w>
lo cate</w>
lev is</w>
le wis</w>
l end</w>
k ry
k ah</w>
ita ly</w>
inve sted</w>
inter state</w>
in ti
ign ite</w>
horri ble</w>
hi p
hand ling</w>
guillo tine</w>
gra vel</w>
goo die</w>
gla ci
ga g</w>
g no
g listen</w>
free zing</w>
fr en
fer o
febru ary</w>
exper im
exhau sted</w>
enter prise</w>
en e</w>
en cy</w>
disgu sting</w>
din ero</w>
depen ding</w>
deliver ed</w>
da sh
cy clo
cu lars</w>
cu la</w>
crea ture</w>
cough ing</w>
con done</w>
comra des</w>
com bo</w>
cli ff</w>
ci des</w>
celebra tion</w>
canna bis</w>
can nibal</w>
ca tho
ca shed</w>
bur bs</w>
buffa lo</w>
bu tts</w>
bu dge</w>
brea ther</w>
bra h</w>
bo u</w>
blea ch</w>
bl a</w>
birth ed</w>
big ga</w>
bi mmer</w>
ben i
ben ches</w>
ash tray</w>
an xious</w>
an us</w>
an ni
amster dam</w>
air plane</w>
ac tavis</w>
ab ly</w>
aa a</w>
a shy</w>
a pr
a partments</w>
80 8</w>
zi pper</w>
you knowhati
yo ga</w>
yan kee</w>
wor ker</w>
witne ssed</w>
wind shield</w>
whoo pin</w>
who a
whir l
wh yd</w>
week ends</w>
vi c</w>
v ow</w>
un ite</w>
un conditi
tru sted</w>
tru es</w>
tra y
tr ench</w>
ti mer</w>
ti cking</w>
thur sday</w>
tha i</w>
ten tion</w>
ta mp
t angled</w>
sw at</w>
st u</w>
sper m</w>
smu gg
smi led</w>
sk ated</w>
sin gers</w>
sha ve</w>
sh ness</w>
ser pent</w>
ser iously</w>
se ssions</w>
scoop ed</w>
s ss</w>
s chi
ru deb
rott we
roman tic</w>
robb er</w>
roa min</w>
reper cus
rene ga
refer ee</w>
rede mption</w>
py thon</w>
pupp et</w>
profe ssion</w>
pro cee
preda tor</w>
poe tic</w>
po tho
pinea pple</w>
pi st</w>
pi ck
pha ra
person ally</w>
performan ce</w>
pe z</w>
pe p</w>
pay ment</w>
pa u
o lym
no te
ne ls</w>
na scar</w>
n ug
musi cs</w>
mo tel</w>
mo sh</w>
mini ster</w>
mini mal</w>
mexi cans</w>
men u</w>
me ssy</w>
man son</w>
mali bu</w>
loa f</w>
llo yd</w>
li bs</w>
kno ck
kid neys</w>
intoxi cated</w>
intelle ctual</w>
instru mentals</w>
in n</w>
im patient</w>
hydra ulics</w>
hu lk</w>
hold er</w>
ho stage</w>
her mes</w>
har ri
har bor</w>
gro wl</w>
gon er</w>
gg a</w>
gen tle</w>
gee ked</w>
fu tures</w>
fru ity</w>
free zin</w>
fore play</w>
for ms</w>
fi rear
fatig ues</w>
face time</w>
fa st
fa bo
even ts</w>
even in</w>
ear ths</w>
dupli cate</w>
du mp
din i</w>
den ied</w>
de partment</w>
de lor
dd les</w>
day tons</w>
damag ed</w>
d nt</w>
cu ffin</w>
compu ters</w>
comp ani
com fy</w>
colo mbi
co pies</w>
clo sing</w>
clean ing</w>
cla ss
civili zed</w>
c ita</w>
bur gers</w>
bu sh
bu b</w>
breit ling</w>
bra ss</w>
blo g</w>
ber serk</w>
benef its</w>
bee fs</w>
be half</w>
b ride</w>
b ore</w>
attra cted</w>
attor ney</w>
ar ch
app ea
ambit ions</w>
ad m
abo ard</w>
ab solute</w>
ab solu
a val
7 s</w>
1 k</w>
1 6s</w>
z ah</w>
you tube</w>
wor ms</w>
wi ped</w>
wh ut</w>
wea ther
washin gton</w>
w es</w>
val ent</w>
v ors</w>
un like</w>
tis m</w>
time less</w>
ti cally</w>
threa tened</w>
terri fied</w>
tax i</w>
t sun
t ful</w>
swan g</w>
stra ys</w>
ss ss
specta cular</w>
speci ali
spar kin</w>
so p</w>
sma ckin</w>
sla mmed</w>
sl a</w>
sig nal</w>
si zzle</w>
si g</w>
shim my</w>
sa tin</w>
sa mu
s pain</w>
run away</w>
rudeb woy</w>
ru e
ri da</w>
revol vers</w>
rest less</w>
resi dent</w>
rela tion</w>
re igns</w>
pu lls</w>
pro bly</w>
preva il</w>
preci sion</w>
prea chin</w>
pi llows</w>
phar rell</w>
perfor ming</w>
pa p</w>
or ies</w>
o pi
night life</w>
net fli
ne qu
ne i
mo tions</w>
mo an
micro wave</w>
marty r</w>
man nish</w>
man nequ
ma sked</w>
ma kers</w>
m ney</w>
lolli pop</w>
lo west</w>
le win
le cture</w>
la ir</w>
k or
k no</w>
jer kin</w>
je ws</w>
inva sion</w>
interven e</w>
in cense</w>
i pod</w>
i ling</w>
i l
hy ster
hy per
hust las</w>
hun ter</w>
hh hhhh</w>
hand ful</w>
ha irs</w>
groo vin</w>
grand mama</w>
gr it</w>
go gg
glu ed</w>
given chy</w>
ge taway</w>
for mula</w>
flo cka</w>
fla w</w>
fau cet</w>
farra khan</w>
execu tive</w>
er ry
el bows</w>
el bow</w>
ea ter</w>
e thi
e i
du mber</w>
drun ken</w>
dri ves</w>
dra matic</w>
dol ph
div as</w>
disci ple</w>
din osa
dick ies</w>
di ction</w>
devi lish</w>
demo cra
de tention</w>
de le
d ere</w>
d back</w>
cti onary</w>
cru mb</w>
cro sses</w>
cree ps</w>
coun ted</w>
contro ver
con verse</w>
colu mbi
certain ly</w>
boo sie</w>
blu ffin</w>
bli zzard</w>
blee k</w>
bla cked</w>
ben jis</w>
be ds</w>
author ity</w>
atta cks</w>
arti llery</w>
an cy</w>
a mber</w>
a lls</w>
3 80</w>
ya p</w>
wri st
wor shi
wit ty</w>
whit ey</w>
what evers</w>
wa de</w>
van ity</w>
un ashamed</w>
tu cker</w>
tt is</w>
troj an</w>
tra mp</w>
tou ts</w>
to se</w>
to ke</w>
ti mers</w>
tek ken</w>
te dly</w>
tay lors</w>
tan tru
tal ents</w>
ta co</w>
ta c</w>
t ougher</w>
su ga</w>
stra dam
spazz in</w>
sp liffs</w>
sol ved</w>
so phisticated</w>
so cc
socc er</w>
sna tching</w>
sky scra
sil hou
shy ne</w>
sh eri
scra mble</w>
roo kies</w>
ro cker</w>
ri vers</w>
ri vals</w>
rearr ange</w>
rai ders</w>
ra tt
ra pid</w>
ra cism</w>
qu er
pu pi
pron ounce</w>
pro sper</w>
poli shed</w>
po po</w>
plan ning</w>
pipp en</w>
phon ies</w>
phenomen on</w>
ph or
pee ping</w>
pan i
open ing</w>
op er
occu pied</w>
o ce
nie ce</w>
ni p</w>
netfli x</w>
my th</w>
mv p</w>
murder in</w>
moti vated</w>
mo ist</w>
mira cles</w>
micro phones</w>
me tho
mati cally</w>
man kind</w>
magi cal</w>
loo ps</w>
loa ds</w>
li ce</w>
less er</w>
lea ds</w>
la m</w>
ke ttle</w>
k c</w>
jug gle</w>
ji g</w>
jacu zzi</w>
ja gu
jagu ar</w>
in vent</w>
in tact</w>
in ser
im pression</w>
ignor ing</w>
hust led</w>
hor se
helicop ters</w>
haw ks</w>
gun ning</w>
gen re</w>
gain ed</w>
g nar
fu mes</w>
for rest</w>
follo wers</w>
fig er</w>
ferra ga
fa cial</w>
ex am</w>
e ti
dy nasty</w>
dv d</w>
dolla s</w>
di ke</w>
dev a
denti als</w>
den ial</w>
dea n</w>
da ze</w>
da h
cro tch</w>
crea tive</w>
coun ts</w>
cor ey</w>
conspira cy</w>
confe tti</w>
con glo
colla p
co con
clo cking</w>
clean ers</w>
clea ts</w>
cla ppers</w>
chemi stry</w>
char ms</w>
ch unky</w>
ch ow</w>
cell u
cau tious</w>
cand le
c tu
br en
boo ked</w>
boo bs</w>
biscu its</w>
bea ches</w>
barre ls</w>
bar e
au stra
ali as</w>
alar med</w>
ain ted</w>
af fect</w>
a tely</w>
a le</w>
3 5</w>
zer os</w>
yach ts</w>
word play</w>
wo mans</w>
win ters</w>
win ds</w>
wh ys</w>
w ned</w>
vo ca
ven ti
va ca
ty len
tur bo</w>
tu tor</w>
tri ump
tre men
tra pper</w>
ton es</w>
to ons</w>
thu mbs</w>
th us</w>
te sla</w>
tan e
swi zz</w>
swee per</w>
swa y
suspen ded</w>
stradam us</w>
str a</w>
stor ms</w>
stair case</w>
squ at</w>
so ver
smi r
sma shin</w>
skele ton</w>
sina tra</w>
sin nin</w>
simp son</w>
side line</w>
si ans</w>
sett led</w>
ro ad
ri ps</w>
ri o
re ward</w>
re stin</w>
re qu
re hear
ra sta</w>
r oug
qu itter</w>
pursu ing</w>
punch lines</w>
pu sher</w>
prodig y</w>
press ures</w>
poison ous</w>
po tty</w>
po ppy</w>
po king</w>
plu gs</w>
play station</w>
pig gy</w>
pee lin</w>
patter n</w>
paci fic</w>
ow ners</w>
on ey</w>
offen se</w>
o la</w>
o bit
nin er</w>
ne wer</w>
mu n</w>
mu le</w>
missi ssi
mi lla</w>
magnifi cent</w>
mag gots</w>
ma tchin</w>
m po
lit er</w>
lin t</w>
less ly</w>
la in</w>
l ted</w>
kun ta</w>
je ssi
itt les</w>
it ation</w>
is ra
inten ded</w>
infa tu
indi ans</w>
imag es</w>
hit ter</w>
han nibal</w>
ha ck</w>
gun dy</w>
gu lly</w>
gou da</w>
go a
glo ss</w>
ge ist</w>
g ll</w>
fru its</w>
fran tic</w>
foot steps</w>
fold ed</w>
fi cation</w>
fe st</w>
far mers</w>
fan gs</w>
fabo lous</w>
fa ils</w>
fa ding</w>
f bi</w>
enti al</w>
enjo ying</w>
ele ments</w>
du mping</w>
dp g</w>
doggy style</w>
dishon or</w>
dis grace</w>
di lla</w>
dani el</w>
dam nit</w>
da ma
da i</w>
d ged</w>
cur ly</w>
coo gi</w>
consu med</w>
compli ment</w>
comb ine</w>
colla rd</w>
cock pit</w>
co al</w>
clar ity</w>
cinna mon</w>
chev ys</w>
cell phone</w>
celebra tin</w>
car ve</w>
ca ter</w>
ca bles</w>
c it</w>
c is</w>
bu ckets</w>
brain less</w>
br y
br ow</w>
bino culars</w>
believ in</w>
be ings</w>
band anas</w>
b woy</w>
b m
aug ust</w>
as se
argu ments</w>
app arent</w>
anxi ety</w>
amate urs</w>
affe ction</w>
advi se</w>
6 2</w>
4 5s</w>
za ck</w>
y um</w>
wo es</w>
wha le</w>
we ls</w>
vo gue</w>
vi e</w>
ver dict</w>
valu able</w>
uni form</w>
under dog</w>
un grateful</w>
u pper
tun a</w>
tu g</w>
trea ch
tr im</w>
tin es</w>
the st</w>
th read</w>
terri fic</w>
ta ck</w>
swif tly</w>
swallo wing</w>
sto mping</w>
sta bbin</w>
snea ks</w>
snea kin</w>
sna pped</w>
smo other</w>
slee py</w>
slaugh ter
shi ver</w>
seven th</w>
sev ere</w>
scra tchin</w>
sco tty</w>
s ys</w>
ro llies</w>
ro e</w>
resu lt</w>
respon si
red bone</w>
rece ssion</w>
re search</w>
ra m</w>
ra il</w>
ra ah</w>
pro secu
pri or</w>
preten ding</w>
pr i</w>
poo ls</w>
po or
phi li
phara oh</w>
pay day</w>
parachu te</w>
para lle
pa z</w>
pa g
out si
out kast</w>
ou uu</w>
or bit</w>
oin ted</w>
ni pples</w>
ni cks</w>
na zi</w>
mu mmy</w>
moti ves</w>
mor ph
migh tve</w>
margie la</w>
mar sh
mar di</w>
mani pu
magi cian</w>
ma t
ma gs</w>
m uh</w>
luci fer</w>
lo ve
lla r</w>
lin ger
li zed</w>
le tt
lap top</w>
la yer</w>
la wr
la ry</w>
l ys</w>
kidna pped</w>
kid ney</w>
kar at</w>
k man</w>
jo y
jer maine</w>
jan uary</w>
jack sons</w>
jack ers</w>
is er</w>
inve st
inter rupt</w>
in tuition</w>
impre ssive</w>
i ans</w>
human ity</w>
home work</w>
holi days</w>
holi c</w>
ho tels</w>
hhhh hhhh
he in
he im
he hehe</w>
ha ss
h d</w>
gy m
gur u</w>
gu zzle</w>
grand mas</w>
go o</w>
ga ye</w>
ga bb
fur nit
fold ing</w>
flamboy ant</w>
fla ts</w>
fee dback</w>
fa din</w>
f ittin</w>
extor tion</w>
excell ence</w>
ex es</w>
e k</w>
dus k</w>
drea mer</w>
distur b</w>
distor ted</w>
disci p
di so
di ctionary</w>
dee ds</w>
dan ts</w>
custo mers</w>
cree k</w>
cr anium</w>
cor ner
contro lling</w>
conglo mer
concea led</w>
clo cks</w>
cla k</w>
cla ims</w>
civi l</w>
chi se</w>
check mate</w>
cen ti
car t
cabin et</w>
ca per</w>
bun k</w>
brui sed</w>
brow ns
bri ef
bran dy</w>
bra ce</w>
box ed</w>
bould ers</w>
bor in</w>
body guard</w>
bo lt</w>
blo cking</w>
bl itz</w>
ben z
bar king</w>
bar ber
band it</w>
bague ttes</w>
ba ggy</w>
au dio</w>
attra ctive</w>
astron au
ar ma
alli gator</w>
ala bama</w>
al es</w>
adole scent</w>
ac ura</w>
ac o</w>
a sp
a fro
a bun
z ay
ya tes</w>
y ang</w>
ww w</w>
wit ches</w>
wh od</w>
ver bs</w>
ven o
vamp ire</w>
us a</w>
under water</w>
under covers</w>
un load</w>
tra cy</w>
timber land</w>
ti ckin</w>
ta ckle</w>
symp hon
symbo l</w>
sy non
sway ze</w>
supp lier</w>
super hero</w>
suffer ed</w>
stro be</w>
stoo l</w>
st ons</w>
spar k
sp he
soopa man</w>
so ver</w>
sma shing</w>
slin ging</w>
sl o</w>
sim mons</w>
si ps</w>
sha ttered</w>
sha ker</w>
ser geant</w>
sep te
sense less</w>
se mis</w>
scri ll</w>
schoo led</w>
ri sen</w>
rela tions</w>
reebo ks</w>
rea son
rap ture</w>
ra tes</w>
qui site</w>
qu et</w>
pu mp
pu ddle</w>
pro ce
prin cipa
pr an
politi cian</w>
pol ter
po la
plu ck</w>
plan ts</w>
perfe ctly</w>
pe t
pa ved</w>
over come</w>
o y</w>
nor m</w>
ni co
na sa</w>
n fl</w>
mu mble</w>
mor als</w>
mon u
mississi ppi</w>
mid get</w>
melo dies</w>
me o</w>
mari o</w>
mar gar
ma hog
mahog any</w>
ma ble</w>
m sy</w>
m n
lun atic</w>
lon gest</w>
lin ing</w>
life styles</w>
lett uce</w>
le es</w>
ka wasa
jo se</w>
jo se
jessi ca</w>
je cted</w>
j ars</w>
itu des</w>
it chy</w>
inje ction</w>
impor ted</w>
ill matic</w>
ignor ed</w>
ig e</w>
hoop tie</w>
hoo chies</w>
ho mo
hi stor
he ist</w>
he ck
h eel</w>
go t
gnar ly</w>
gimmi e</w>
gi sh</w>
gi ous</w>
gamb lin</w>
ga ga</w>
g gie</w>
fus sin</w>
furnit ure</w>
fun kin</w>
ful fill</w>
frau ds</w>
fla v</w>
fix ture</w>
fish scale</w>
fi shin</w>
fi let</w>
fero cious</w>
fea red</w>
ex ha
esco bar</w>
er up
e pit
dra cula</w>
disapp eared</w>
dis covered</w>
dip set</w>
din ners</w>
di ego</w>
defin ed</w>
deca de</w>
de light</w>
de co
da gger</w>
d ley</w>
cu ck
cu bes</w>
cruci fied</w>
cru shin</w>
cros sover</w>
cre me</w>
cre d
cra ps</w>
contro lled</w>
contra cts</w>
con sume</w>
con cei
compla inin</w>
compar ing</w>
com promise</w>
com mission</w>
com bs</w>
co di
co ckin</w>
cin co</w>
chur ches</w>
chu bby</w>
char ger</w>
cellu lar</w>
cate gory</w>
catastro phe</w>
car diac</w>
ca shin</w>
ca pped</w>
c un
c tured</w>
bur den</w>
brin ks</w>
bra w
br r</w>
bor der
bo thered</w>
bla sphe
bit ching</w>
bir dies</w>
bi dden</w>
ben ding</w>
beat les</w>
batt lin</w>
barbe cue</w>
bapti zed</w>
bal main</w>
ba lan
b ble
any ways</w>
an ch
am ig
agen ts</w>
after life</w>
addi ctive</w>
ad ded</w>
acti vate</w>
accoun tant</w>
ac ro
ac cent</w>
ab sor
a while</w>
a stray</w>
a sia</w>
a far</w>
a de
a 1</w>
7 0</w>
6 i
3 60</w>
0 7</w>
zi llion</w>
zi h
z u</w>
z ee</w>
z ards</w>
ye ssi
x ed</w>
wr ld</w>
wo mens</w>
whisp ers</w>
whisp ered</w>
wh el
wed ne
wedne sday</w>
war ming</w>
wa lly</w>
w en</w>
vin yl</w>
ver ing</w>
ven de
use less</w>
us to</w>
under esti
u zis</w>
tri pped</w>
tri cky</w>
tr ends</w>
took en</w>
to w
to mb
to ler
ti ff
thera pist</w>
ta ker</w>
t ties</w>
stu mbled</w>
stri ps</w>
stin king</w>
stee z</w>
stea dily</w>
spee ds</w>
sp reading</w>
sover e
sni pe</w>
sna cks</w>
sk is</w>
sk ating</w>
si c</w>
sha ft</w>
sha ck</w>
separa ted</w>
sear ched</w>
scri m
sc i</w>
san tana</w>
sa tans</w>
s ms</w>
s le</w>
rubb ing</w>
rubb ed</w>
roll er
ri chie</w>
retali ation</w>
re c</w>
ra cial</w>
quo ta</w>
pu m</w>
pos session</w>
per si
per kin</w>
pep si</w>
pe tals</w>
part ys</w>
pain ful</w>
pa ckers</w>
oun d
off ers</w>
occa sion</w>
o tch</w>
o me
o hi
ohi o</w>
nymp ho</w>
ny c</w>
nu mb
nin jas</w>
ne mo</w>
na y</w>
my space</w>
mor t
moni ca</w>
mon te</w>
mo to
mo jo</w>
mi lea
mi ds</w>
mer a</w>
medu lla</w>
mean est</w>
mar l</w>
ma cking</w>
m itch</w>
lon gs</w>
lo cking</w>
lo ced</w>
lli ons</w>
li able</w>
len non</w>
le f
la sers</w>
l sd</w>
l ent</w>
jud gment</w>
jig gas</w>
jack pot</w>
j it</w>
itt ens</w>
iti ous</w>
it ys</w>
it able</w>
ir rit
inten se</w>
inde x</w>
in timate</w>
i co</w>
hug ging</w>
hot tie</w>
hon or
he ir</w>
hand led</w>
hai lie</w>
grin nin</w>
grin ch</w>
gradu ation</w>
gra phy</w>
gla re</w>
gen erate</w>
g nac</w>
g na</w>
g ly
fra gi
for bidden</w>
fold in</w>
flat line</w>
fla re</w>
fe tus</w>
far ther</w>
fa ul
fa stest</w>
f art</w>
exc iting</w>
ex quisite</w>
equi valent</w>
ene mys</w>
e sp
e sco</w>
du sted</w>
domin oes</w>
do ggs</w>
disci ples</w>
dimen sion</w>
dig it</w>
deba ting</w>
dar lin</w>
d ough
d get</w>
custo mer</w>
cu mmin</w>
cro ssin</w>
cri ppin</w>
cr ust</w>
cour te
cos by</w>
contro llin</w>
contro lla</w>
contin ental</w>
consist ent</w>
consci ousness</w>
compla ining</w>
come dy</w>
com men
cocon ut</w>
coa stin</w>
cli pse</w>
ck ery</w>
chi mney</w>
chi ca</w>
char i
ca ress</w>
c lon
butter flies</w>
browns ville</w>
bor ro
boo mer
bo ssy</w>
blo gs</w>
bla ckin</w>
bl it
billi ons</w>
bi kin
bene fit</w>
ba pe</w>
b mm</w>
au tu
atta cking</w>
ar mor
ar ena</w>
approa ched</w>
apo calypse</w>
ance stors</w>
ali ens</w>
adi os</w>
ad der
a spir
2 6s</w>
1 1s</w>
z ul
yu k
ya o</w>
woo o</w>
wi e</w>
whirl wind</w>
war rants</w>
war ner</w>
war dro
wa ffle</w>
w us
veno mous</w>
va se
us on</w>
up grade</w>
un lea
tylen ol</w>
twea k</w>
tu ri
tri ppy</w>
trea ts</w>
tok yo</w>
ti ppy</w>
tea ring</w>
ta urus</w>
t out</w>
sun light</w>
stri kin</w>
strate gy</w>
strange st</w>
stoo p</w>
stero ids</w>
snit ched</w>
slee ps</w>
slea zy</w>
ski pping</w>
si pped</w>
sher m</w>
sei ze</w>
scra ps</w>
scholar ship</w>
sa dness</w>
sa ddle</w>
s ow</w>
run ny</w>
ru mp</w>
rou lette</w>
ribb on</w>
reli sh</w>
reincar nated</w>
refrig erator</w>
re tired</w>
re pen
rai l
ra sh</w>
ra ma
ra ble</w>
r eel</w>
pyra mids</w>
psy ch</w>
produ cers</w>
produ ced</w>
pret tiest</w>
prai ses</w>
portra it</w>
por ter</w>
pier ce</w>
pene tra
pe dd
pay ments</w>
parti cipa
paralle l</w>
pan ty</w>
pack ages</w>
pa yed</w>
p hole</w>
out laws</w>
or gan
ol dest</w>
octo ber</w>
ob ser
o zone</w>
o wl</w>
o t
nor thern</w>
ner ds</w>
nee ding</w>
ne goti
nap kin</w>
mutha fucking</w>
mur ci
mo tha</w>
milea ge</w>
mig o</w>
mee tings</w>
mean time</w>
me ters</w>
mari e</w>
madi son</w>
ma ck
lor ed</w>
lo gue</w>
listen ers</w>
ligh test</w>
lea s</w>
le i
lala la</w>
l ll</w>
kry p
justi fy</w>
ju mp
jen ny</w>
ja mmed</w>
j ill</w>
j e</w>
j ar
inter scope</w>
inten tion</w>
insu lt</w>
instru ctions</w>
inno va
inher it</w>
infer ior</w>
indi ana</w>
im mor
identi fy</w>
i um</w>
hi ck
har sh</w>
ha zar
ha sh
h dad</w>
gym na
guin ness</w>
gra sp</w>
gra des</w>
gogg les</w>
go oo
gala xy</w>
ga ted</w>
fu g
fran ken
flo wn</w>
flee k</w>
fix ing</w>
fi les</w>
fi es</w>
fear less</w>
f n</w>
f ling</w>
exten do</w>
ever lasting</w>
eu phor
eter nally</w>
er or</w>
en ted</w>
ele ction</w>
ea ts</w>
ea s</w>
e less</w>
dread locks</w>
doub ted</w>
dire ctions</w>
dia tor</w>
di al
dee ply</w>
de cla
dash board</w>
d ings</w>
cur ls</w>
cro codi
cre dentials</w>
cos mic</w>
conqu ered</w>
conglomer ate</w>
competit ors</w>
communi cation</w>
com miss
co ordin
cinder ella</w>
cin o</w>
cig ari
chandeli er</w>
ch op
ch ant</w>
centi pe
cauca sian</w>
car rots</w>
ca uses</w>
bur gundy</w>
bud dies</w>
bu lous</w>
bu cked</w>
bro thas</w>
bra zi
bra cket</w>
br un
bould er</w>
border line</w>
blood line</w>
blin ding</w>
bl ush</w>
bit ter
bin o</w>
bi lli</w>
ben ny</w>
bea min</w>
bb les</w>
bank rolls</w>
balenciag as</w>
bal ti
bag hdad</w>
autu mn</w>
auto graphs</w>
ar ch</w>
aquar ius</w>
apr on</w>
appreci ated</w>
answ ered</w>
an th
ali cia</w>
al la
ad es</w>
ac c
a ha</w>
7 5</w>
3 000</w>
2 nd</w>
1 50</w>
0 6</w>
zon a</w>
yessi r</w>
y land</w>
woo l</w>
wi dow</w>
whi ff</w>
wee ds</w>
wea ry</w>
wal lace</w>
wa its</w>
vo ir</w>
vi sta</w>
vi bin</w>
veter ans</w>
ver ge</w>
ver bally</w>
ven ue</w>
vege tables</w>
vege table</w>
v ouch</w>
v ari
up state</w>
unconditi onal</w>
un born</w>
u cin
tur ing</w>
tur bul
troop er</w>
tribu lations</w>
trave lin</w>
tr i</w>
tor na
to ssin</w>
to ken</w>
to dd
three some</w>
thi sll</w>
they self</w>
tex tin</w>
ta med</w>
symphon y</w>
sy rin
swit ch
sublimin al</w>
strea k</w>
stee lo</w>
sta ls</w>
squir re
splur ge</w>
speciali st</w>
sp lin
soa king</w>
sna ps</w>
smo kes</w>
slaugh tered</w>
sla bs</w>
shu ffle</w>
shot tie</w>
shoo touts</w>
shoe box</w>
shif ty</w>
she i
sha ke
sha ckles</w>
sh ments</w>
septe mber</w>
sen ior</w>
scrip tions</w>
sco t</w>
san ity</w>
sa vi
s man</w>
s ever</w>
rin ger</w>
ri dge</w>
reti rement</w>
renega de</w>
remin der</w>
regu late</w>
recogni zed</w>
re ed</w>
rail road</w>
ra y
ra west</w>
ra ke</w>
r er
qui k</w>
pun ish</w>
prison er</w>
potho les</w>
pot na</w>
poli sh</w>
poin ting</w>
pla t
pit cher</w>
pin ts</w>
physi cs</w>
perpe tra
percen tage</w>
pa ws</w>
p light</w>
p as</w>
p anda</w>
or a
oni ons</w>
offer ing</w>
oce ans</w>
occu r</w>
obsta cles</w>
o lo</w>
nu de</w>
nu clear</w>
no stri
nin na</w>
night time</w>
nick le</w>
new s
net work</w>
nee dy</w>
mus cles</w>
mu gs</w>
min ish</w>
min gle</w>
mi rage</w>
mi mic</w>
mati zed</w>
maje sty</w>
m wah</w>
m ly</w>
lu ck
logi st</w>
lin ked</w>
lin da</w>
li o</w>
la x</w>
kin dness</w>
k ang</w>
je ff</w>
it ors</w>
ir ony</w>
inti mi
infe sted</w>
in gre
ingre di
i zz</w>
i lers</w>
i er</w>
i cey</w>
hou r
hook ah</w>
home girls</w>
ho over</w>
hen n</w>
hell cat</w>
hel met</w>
he ta
han di
h ounds</w>
gui ded</w>
gu a
gr ance</w>
gen era
gee kin</w>
ge es</w>
gala ctic</w>
g ons</w>
fran chise</w>
fra grance</w>
fra ction</w>
for getting</w>
flo ps</w>
fla ke</w>
far i</w>
fa bulous</w>
exha ust</w>
exce l</w>
esca pin</w>
er r</w>
emo jis</w>
ear lo
e dit
dus se</w>
du ffel</w>
dra ggin</w>
doo med</w>
domini can</w>
domin ate</w>
dol ph</w>
do c
divor ced</w>
disper se</w>
di scri
di minish</w>
desp era
der anged</w>
den nys</w>
deli rious</w>
cuck oo</w>
cu tter</w>
ct us</w>
crack head</w>
coo p</w>
con c
conc eal</w>
climb ed</w>
cli max</w>
cle f</w>
chev ro
chee tah</w>
car tri
capa ble</w>
cance l</w>
can i
cadilla cs</w>
ca ked</w>
c u</w>
br ig
br at</w>
boun ty</w>
bo ssin</w>
blan ket</w>
bi a</w>
be otch</w>
be anie</w>
balti more</w>
ballo on</w>
ba the</w>
ba da
au ction</w>
att itudes</w>
athle tes</w>
ar ts</w>
ar i</w>
appear ance</w>
an e
ama ze</w>
aggre ssion</w>
ae sop</w>
activi st</w>
ac es</w>
ac cess</w>
aband on</w>
a mped</w>
6 6</w>
5 2</w>
3 3</w>
zul u</w>
y ung</w>
y as</w>
wre ckin</w>
win dy</w>
we stern</w>
we ighs</w>
wardro be</w>
war dly</w>
waist line</w>
vo lun
vir tue</w>
vi x
ves sel</w>
ve sts</w>
va cate</w>
v 12</w>
ur p</w>
under standin</w>
un necessary</w>
twin kle</w>
tou rin</w>
tou rage</w>
too t</w>
to ba
the sis</w>
tea ry</w>
tar zan</w>
tan quer
tanquer ay</w>
t nt</w>
sugge sti
sub tra
stun g</w>
stu pi
strate gi
sti cker</w>
stea min</w>
sta le</w>
squ ab
spl its</w>
spar king</w>
snu ff</w>
sno wing</w>
snap back</w>
sma cking</w>
sli ps</w>
sl ed</w>
sk a</w>
she pher
sh it
sever ed</w>
se ys</w>
se ct</w>
scho lars</w>
scen ery</w>
sc ur
sa mp
s unk</w>
s not</w>
s lightest</w>
rubber band</w>
ru bble</w>
ro tate</w>
resi stance</w>
ren o
relax ed</w>
recor din</w>
rea gan</w>
re inde
re bound</w>
rai ser</w>
ra s</w>
ra rr
promo te</w>
pop corn</w>
polter geist</w>
po stin</w>
pl at</w>
pi one
ph ies</w>
per ig
perig non</w>
pe l</w>
pan thers</w>
pa tek</w>
ow w</w>
over rated</w>
organ ic</w>
op ar
offi cially</w>
o li
neighbor hoods</w>
ne x
ne o</w>
na ise</w>
na h
murci ela
mu ti
moto ro
mo dest</w>
mis lead</w>
mi ze</w>
medit ation</w>
medit ated</w>
meda llion</w>
mean er</w>
me ll</w>
mar t</w>
main ten
mag net</w>
lux e</w>
lu v</w>
lu mps</w>
lou isi
louisi ana</w>
ll y
lieuten ant</w>
li mb</w>
li bra
lewin sky</w>
le tter
le o</w>
lawr ence</w>
la ys</w>
kra zy</w>
klu x</w>
kawasa ki</w>
k um</w>
k itten</w>
je opar
inva de</w>
inter nal</w>
in c</w>
im mig
ii i</w>
i cing</w>
hyp no
homi cidal</w>
home town</w>
hil figer</w>
hi ve</w>
hi ke</w>
hi ii
hench men</w>
head lines</w>
hazar dous</w>
hawa ii</w>
har vey</w>
hall ucin
gover nor</w>
go bble</w>
gi g</w>
gee k</w>
ga ls</w>
for feit</w>
foo li
flir tin</w>
finan cial</w>
ffi cient</w>
fav our
fanta size</w>
f are
exten sion</w>
ex plan
evol ve</w>
ever last</w>
ero tic</w>
en tourage</w>
en do</w>
em ba
elev ated</w>
eleg ant</w>
eld ers</w>
e v</w>
dra wer</w>
doub ts</w>
doo bie</w>
do ves</w>
dispu ted</w>
dis ney</w>
destru ct</w>
dec line</w>
de tails</w>
d ana</w>
cyclo ps</w>
cur few</w>
cu shi
criti c</w>
crea ting</w>
crea se</w>
cre ed</w>
cor ds</w>
coo laid</w>
contro ller</w>
continu ed</w>
con ven
con fronted</w>
compli ments</w>
come back</w>
clean in</w>
circu it</w>
ci pher</w>
ch ong</w>
catho lic</w>
car toons</w>
car tel</w>
ca vi
ca ll
bub ble
bu h</w>
brilli ant</w>
bren da</w>
box in</w>
boot leg</w>
bo a
blo s
blo ck
bla dder</w>
bi bles</w>
battle field</w>
back bone</w>
ba zoo
ba lli
ba lla</w>
asi ans</w>
app li
adder all</w>
ad ju
ab sent</w>
3 65</w>
2 1st</w>
18 00</w>
zz led</w>
z are
yknah msayin</w>
y man</w>
woo den</w>
wo e</w>
wi zzle</w>
whi st
we sley</w>
wal labe
wal kie</w>
wa shing</w>
w h</w>
w en
w eep</w>
vo ted</w>
vin ce</w>
vege tar
ve gan</w>
v v
under stands</w>
un defeated</w>
un conscious</w>
trea tment</w>
tor onto</w>
tomb stone</w>
toa sters</w>
timber lands</w>
ti ca</w>
ti a</w>
thu mpin</w>
threa ten</w>
testa ment</w>
tech no
tea sin</w>
tan go</w>
take over</w>
syn c</w>
super st
suff o
stru cture</w>
stri pe</w>
stoma chs</w>
stin gy</w>
sta llion</w>
ssa l</w>
spon sor</w>
spo ons</w>
sp rings</w>
sor ts</w>
snor tin</w>
sla yed</w>
sl eet</w>
sku lly</w>
sizz lin</w>
si mmer</w>
si ci
sh red
sh allah</w>
seiz ure</w>
secr ans</w>
se w</w>
se h</w>
scoo by</w>
scienti st</w>
schoo l
scen ari
sca pe</w>
s worn</w>
ro ster</w>
ro secrans</w>
ro ckets</w>
ro bes</w>
repla cement</w>
re po</w>
re lay</w>
re f</w>
qu en
pro ven</w>
pro fits</w>
pre vent</w>
poli ces</w>
po oh</w>
pivo t</w>
pilla r</w>
pi re
photo graph</w>
ph ers</w>
paraly zed</w>
pa trick</w>
pa cin</w>
pa c
ow ens</w>
organi zed</w>
organi ze</w>
oppo se</w>
o cho</w>
ne p
n ea
myster ious</w>
mort gage</w>
mo ons</w>
mo bbing</w>
mix ture</w>
mee tin</w>
media tely</w>
mea sur
me ly</w>
me ga
mb les</w>
mb le
mar chin</w>
mainten ance</w>
ma shed</w>
ma lt</w>
lun ch
lin e
li u</w>
li stic</w>
ld a</w>
la mbs</w>
la dys</w>
la ble</w>
kill ings</w>
k ery</w>
jo t</w>
jo lly</w>
jin x</w>
jer e
je ff
jaco bs</w>
ja ded</w>
j on
inter rup
i slam</w>
i sa
hun ted</w>
hu mor</w>
hour glass</w>
hou sin</w>
hone sty</w>
holo ca
holoca ust</w>
ho la</w>
her d</w>
harri et</w>
har dy</w>
happ ily</w>
han dy</w>
haiti ans</w>
habit at</w>
ha sta</w>
h itt
grey hound</w>
go th
gin ger</w>
gi ddy</w>
gi ants</w>
ge tic</w>
gang bangin</w>
gabb ana</w>
g t</w>
fun ka
fu zz</w>
fu turi
fi la</w>
ferraga mo</w>
fe in</w>
favour ite</w>
f led</w>
f leas</w>
explo sive</w>
exe cute</w>
euro s</w>
eri ck</w>
er ia</w>
endor se</w>
en for
en ed</w>
eigh ties</w>
egy pti
du e
dra gged</w>
dr es</w>
do x</w>
do me
do ja</w>
din a</w>
di spla
deser ves</w>
de scen
da ddies</w>
d son</w>
d ong</w>
cu ffing</w>
crocodi le</w>
courte sy</w>
cour tro
conta gious</w>
constru ction</w>
concentra te</w>
con duct</w>
con cl
commiss ary</w>
clu msy</w>
citi zen</w>
cin e
ci sts</w>
ci als</w>
chin o</w>
chemi cals</w>
char ging</w>
cara van</w>
can o</w>
cada bra</w>
ca va
ca ttle</w>
bull dog</w>
buck wild</w>
bu ri
brief case</w>
bo ssed</w>
bo de
blee ds</w>
biz ness</w>
big g</w>
be y</w>
be la
bache lor</w>
baby girl</w>
austra lia</w>
astronau t</w>
assi stance</w>
assass ins</w>
arsen al</w>
arman i</w>
ari zona</w>
ar m
appar el</w>
an dy</w>
alar ms</w>
al ter</w>
abus ing</w>
a mb
a lotta</w>
5 6</w>
2 50</w>
2 3s</w>
2 23</w>
100 k</w>
10 th</w>
1 51</w>
zen ith</w>
yyyy y</w>
wonder ed</w>
with dra
we ttin</w>
we h</w>
wa shin</w>
wa llets</w>
w k
vo ws</w>
visu alize</w>
tt erin</w>
tru sting</w>
tro is</w>
trans ition</w>
tra ys</w>
ton ka</w>
tion ally</w>
ti o</w>
ti mber</w>
thumb ing</w>
thu mper</w>
thr ust</w>
ther ing</w>
tenden cies</w>
tal ented</w>
ta sha</w>
t ins</w>
swa ggin</w>
sur ve
su ites</w>
stun ts</w>
stri ck
stor my</w>
sto cking</w>
sq ad</w>
spr int</w>
spon sor
spe cu
sp len
sn ee
smi rk</w>
sli pp
slipp ery</w>
sl ung</w>
silhou ette</w>
si re</w>
si l</w>
si e
si ame
siame se</w>
shoo ts</w>
shoo tout</w>
shin ed</w>
shi zzle</w>
sha p</w>
sex u
ser ies</w>
sedu ction</w>
scoo b</w>
scan dal</w>
sa bo
s wings</w>
ru gs</w>
robo t</w>
ring tone</w>
repercus sions</w>
reinde er</w>
reali zing</w>
re sting</w>
rain in</w>
radi cal</w>
ra ve</w>
ra ine</w>
r ust</w>
r ough
r ona
rona ld</w>
q b</w>
pus sys</w>
pun ches</w>
pu dding</w>
pr en
pota toes</w>
pope ye</w>
plu mber</w>
play list</w>
pla yo
piran ha</w>
pi mp
phili pp
phi llies</w>
pha n</w>
pe tri
pa ppy</w>
pa mpers</w>
p j</w>
ou tcha</w>
op ens</w>
oin tment</w>
ob session</w>
o ath</w>
ni p
ne on</w>
na ps</w>
n uns</w>
n ite</w>
my ers</w>
muthafuck er</w>
mp tions</w>
mon c
mi lan</w>
mer k</w>
me s
mater i
margie las</w>
maj ors</w>
maj ority</w>
luck ily</w>
lou dest</w>
loo sen</w>
lli an</w>
lla c</w>
len ch</w>
la sh</w>
kryp tonite</w>
je tted</w>
j her
it erate</w>
infil trate</w>
im mediately</w>
i ffy</w>
hun ch</w>
hu m
hu ff</w>
hoo ps</w>
hoo chie</w>
her on</w>
hass le</w>
hair y</w>
ha zy</w>
ha lt</w>
ha hah</w>
h ugh</w>
gun ned</w>
gu lar</w>
gu er
gon es</w>
go blin</w>
gli zzy</w>
glaci ers</w>
gla mour</w>
gi ver</w>
gen es</w>
g listenin</w>
g hou
g eah</w>
funka delic</w>
fran kie</w>
fra il</w>
flash light</w>
fla shed</w>
fla p</w>
fla kes</w>
fin ds</w>
fif ths</w>
fi shy</w>
fi ller</w>
fi e</w>
fare well</w>
fanta si
fami lia</w>
fact ory</w>
fabri cs</w>
fa ttest</w>
eye in</w>
eye balls</w>
exe cs</w>
ev ils</w>
euphor ia</w>
ere ction</w>
er ine</w>
entreprene ur</w>
enga ged</w>
en der</w>
elev ation</w>
egy pt</w>
du per</w>
dra ts</w>
down stairs</w>
doub les</w>
domin ant</w>
docu mentary</w>
distribu te</w>
dis missed</w>
dis miss</w>
di stin
di ps</w>
di llin
develo ped</w>
den tly</w>
decor ate</w>
de mic</w>
da pper</w>
crow ned</w>
cra ve</w>
court side</w>
corrup ted</w>
controver sy</w>
contin ues</w>
contempla ting</w>
consi der
con tain</w>
con cep
comm end</w>
com p</w>
co t</w>
co l</w>
co ated</w>
clar ks</w>
cla u
cla at</w>
chick en
che er
ch k</w>
cari bou</w>
car ing</w>
can a</w>
ca shing</w>
ca ctus</w>
buzz ed</w>
bu ds</w>
bry ant</w>
boy friends</w>
bout ins</w>
bomb ing</w>
black smith</w>
bla h
bitch ll</w>
bi lit
be comin</w>
ba te</w>
ba ses</w>
aw ww</w>
aval an
au stin</w>
assi st</w>
as y
and rew</w>
all en</w>
aggra vated</w>
ad ver
ad or
ac ted</w>
absolu tely</w>
abor t</w>
aaaa a</w>
aa a
a stro
a ssed</w>
8 3</w>
2pa calypse</w>
yon naise</w>
yea hh</w>
ye lled</w>
x 9
wus sup</w>
wild n</w>
whoa die</w>
water ed</w>
wan k
wa an</w>
w rappin</w>
vir go</w>
victor ious</w>
ven ice</w>
vehi cles</w>
va gin
undre ssed</w>
un ra
un fair</w>
un expected</w>
un disputed</w>
turbul ence</w>
tsun ami</w>
trif ling</w>
tri c</w>
treach erous</w>
trea ting</w>
trau matized</w>
tra ppers</w>
tra din</w>
tigh ten</w>
ti mbo</w>
ter i
te z</w>
ta stin</w>
ta ps</w>
ta pping</w>
ta ined</w>
ta b
t ug
swea ters</w>
swa m</w>
swa gging</w>
survi ving</w>
su pa</w>
su mma</w>
stitu te</w>
sti ck
stewar dess</w>
stea lth</w>
st oner</w>
ss ance</w>
spla ttered</w>
spla tter</w>
spl een</w>
spi lls</w>
spar ked</w>
sp ur</w>
sni pers</w>
sla yin</w>
sla mming</w>
sla cks</w>
ski llet</w>
sher man</w>
sha bba</w>
sh een</w>
sel dom</w>
scrim mage</w>
scre win</w>
sca ttered</w>
sca lp</w>
sali va</w>
sa ti
sa mples</w>
sa m
s mur
s ights</w>
rue ger</w>
ru bi
rr r</w>
ri pper</w>
recru it</w>
recei ved</w>
recei pts</w>
re mar
r itual</w>
qui e
pus sy
pupi ls</w>
pun kin</w>
pro found</w>
privi le
predi cted</w>
predi ctable</w>
poun ding</w>
por no
politi c</w>
pla tter</w>
pi per</w>
penci ls</w>
pee ling</w>
pa cino</w>
pa cing</w>
over whel
out fits</w>
or der
open in</w>
oo p</w>
oc re</w>
obit uary</w>
nin th</w>
ni k
musli ms</w>
mu late</w>
mu ff
monc ler</w>
mon roe</w>
mo squ
mo le</w>
mind state</w>
miche lle</w>
medi ocre</w>
medi cin
me ts</w>
me tro
me lan
me h</w>
me dina</w>
mar c</w>
manu fa
mail box</w>
mai ds</w>
magnu ms</w>
ma yonnaise</w>
ma ury</w>
ma ts</w>
ma scot</w>
lu cas</w>
lou bou
loubou tin</w>
loo kout</w>
lo tus</w>
ll ll</w>
lif y</w>
la sted</w>
la m
ko sher</w>
jour na
joo g</w>
jo jo</w>
jher i</w>
j u</w>
j enni
ins ight</w>
influ enced</w>
infatu ated</w>
ine sses</w>
in tri
im o</w>
im itate</w>
hoo drats</w>
hon ies</w>
hold ers</w>
ho p
hi pp
har vest</w>
har t</w>
hand stand</w>
ha y
ha snt</w>
groo vy</w>
grocer ies</w>
grand father</w>
got sta</w>
gla dly</w>
gig gle</w>
gett able</w>
g ity</w>
fu lla</w>
frequ ent</w>
franken stein</w>
fran ks</w>
fragi le</w>
for en
fl ur
fl our</w>
finger tips</w>
fe sti
fami lys</w>
f n
extra va
exten sions</w>
exp and
ex hi
envelo pe</w>
end ure</w>
emp eror</w>
eli minate</w>
e p
dra ined</w>
dor m</w>
doo m
distur bing</w>
dis mantle</w>
dire ctly</w>
devi lle</w>
demo lish</w>
del ta</w>
de pos
de luxe</w>
day time</w>
dance floor</w>
dan ny</w>
da shi
da mi
d wa
custo med</w>
cti ves</w>
cta tions</w>
cri pple</w>
cred its</w>
coug ar</w>
con sig
con fir
con ci
com motion</w>
com et</w>
color ful</w>
co mic</w>
clu es</w>
cla ren</w>
circum stances</w>
chor ds</w>
chee sy</w>
che wed</w>
che que</w>
celebra ted</w>
ce dar</w>
car riage</w>
can di
ca ter
c lit
buzz ing</w>
bus inesses</w>
buri al</w>
bru tal</w>
box er</w>
bow ls</w>
bow ling</w>
bou ts</w>
boo l</w>
bo bbin</w>
blur red</w>
blue berry</w>
bli cal</w>
black ness</w>
bl ings</w>
bi blical</w>
bea ten</w>
be ige</w>
batt eries</w>
ba ld
ba h</w>
athe ist</w>
as ks</w>
aqu a</w>
approa ching</w>
anth ony</w>
ana tomy</w>
an te</w>
an swer
ak on</w>
ab used</w>
a lex</w>
a float</w>
6i x9
6 0s</w>
0 3</w>
zi ppers</w>
young ster</w>
ya lls</w>
y ag
win k</w>
win g
weather man</w>
war nin</w>
war k</w>
vul ture</w>
vo ice
via gra</w>
vase line</w>
v ant</w>
unfortun ate</w>
unfor gettable</w>
un employed</w>
u oy</w>
u ds</w>
twi ster</w>
tu bes</w>
tru stin</w>
triump h</w>
tre ble</w>
trans for
thumb in</w>
tho tties</w>
thea ter</w>
th ren</w>
ten th</w>
sw ir
survi vors</w>
subur bs</w>
sub tle</w>
sty ling</w>
str ys</w>
str angle</w>
stin a</w>
ster ous</w>
star ring</w>
sta ted</w>
squ ads</w>
spa r</w>
spa de</w>
sp ed</w>
some what</w>
so pr
so mes</w>
so cket</w>
sno tty</w>
smo thered</w>
sme lled</w>
slu mber</w>
slo wing</w>
slaughter house</w>
ske tch</w>
sin ful</w>
silen cers</w>
sheri ff</w>
shar p
sha meless</w>
sh ir
ser pen
senti mental</w>
sea ted</w>
sea t
sea ls</w>
se same</w>
se ga</w>
scorpi o</w>
sco ping</w>
sco pin</w>
sad dest</w>
sacrifi ced</w>
ry din</w>
ry der</w>
ru by</w>
robb eries</w>
ro o</w>
rit z</w>
reebo k</w>
recei pt</w>
re turned</w>
re pl
re ject</w>
re bu
rarr i</w>
rapi dly</w>
ra ined</w>
pul pit</w>
pu mas</w>
psy che
provi ded</w>
pro pag
principa l</w>
pre fer
poli cy</w>
po lly</w>
po ked</w>
pl un
pi l
phenomen al</w>
pee phole</w>
pe ts</w>
part ying</w>
pa th
pa ssive</w>
pa ddle</w>
pa cker</w>
p ev
or phan</w>
op a</w>
oo oo</w>
ony x</w>
on ship</w>
on imo</w>
on ies</w>
od le</w>
o ak</w>
nu m</w>
noo kie</w>
new born</w>
ne me
na po
n als</w>
mo bsters</w>
mis fit</w>
migh ta</w>
mi ck</w>
me da</w>
man ure</w>
man nie</w>
lou boutins</w>
lo lo</w>
linger ie</w>
lik kle</w>
letter man</w>
land lord</w>
la sts</w>
l son</w>
kno wi
jud gement</w>
jer seys</w>
je ffer
intri cate</w>
interven tion</w>
inter lu
incarcer ated</w>
in secur
in fan
ill ance</w>
ign ition</w>
i z</w>
i so
i sla
i llin</w>
i lable</w>
hy dr
hu mmers</w>
hot ties</w>
ho gs</w>
ho ar
hiii power</w>
hide ous</w>
hi ero
hiero gly
head lights</w>
he ine
hash tag</w>
half time</w>
ha dnt</w>
ha a</w>
h anger</w>
gun na</w>
gra pev
gra bs</w>
gr ounded</w>
gover n
go li
g is</w>
futuri stic</w>
fre ed</w>
fran cis</w>
fore ig
for bid</w>
follo ws</w>
fo ggy</w>
flo ssing</w>
flin t
fer ris</w>
fan atic</w>
fa ze</w>
fa x</w>
experim ent</w>
expe cting</w>
expe ctations</w>
exc ite
ex tend</w>
evo lution</w>
ev el</w>
engin es</w>
emp ha
elev ators</w>
ear lier</w>
e mail</w>
e clipse</w>
du t
dra pes</w>
dr at</w>
disrespe ctin</w>
disea ses</w>
discip line</w>
dia per</w>
dia gno
di spo
di l
di cta
di an</w>
desi res</w>
deser ved</w>
der ek</w>
den s</w>
deli cate</w>
dee bo</w>
deca y</w>
d ll</w>
cushi on</w>
cus sion</w>
cur sin</w>
cu h</w>
cri pp
cra e</w>
coun tries</w>
conne ctions</w>
con ference</w>
com mo
co z</w>
chick a</w>
ce ments</w>
cavi ar</w>
cassi us</w>
cap ti
cali co</w>
cal vin</w>
ca sca
ca mo</w>
c l</w>
bur berry</w>
bron ze</w>
bro ker</w>
bri an</w>
brea thed</w>
bre thren</w>
black berry</w>
bit ten</w>
bit es</w>
bea mers</w>
be ttin</w>
batt ling</w>
band anna</w>
ban ned</w>
balla d</w>
balenciag a</w>
ba ton</w>
ba ss
b me</w>
b bies</w>
aw fully</w>
avoi ding</w>
arri val</w>
arch ite
ali zed</w>
alex ander</w>
ag ing</w>
adu lt</w>
ad dition</w>
ad ding</w>
ac re</w>
ac customed</w>
abun dance</w>
a z
a to
2 k</w>
0 2</w>
zi ps</w>
zi plo
zay to
zayto ven</w>
z op
zop hren
yy yy</w>
ya wning</w>
x o</w>
x l</w>
x 3</w>
wre cking</w>
wheel chair</w>
whee ler</w>
vv ss</w>
vi da</w>
ver b</w>
vende tta</w>
ven e
va ge</w>
va der</w>
v on
us ions</w>
under world</w>
un lock</w>
ul tima
u mbi
tran spor
towe ls</w>
tou r
toler ance</w>
thin ner</w>
tai lored</w>
t w</w>
swallo win</w>
surve illance</w>
surroun ding</w>
sur gi
stu ffin</w>
stro kin</w>
star ters</w>
star k</w>
stal ker</w>
sta ple</w>
st ir</w>
squee zed</w>
squab ble</w>
spo ck</w>
sp rees</w>
sp itta</w>
solo mon</w>
so x</w>
snu ffed</w>
slee per</w>
sl in</w>
ske e</w>
si cs</w>
show biz</w>
should n
shor tly</w>
sho tta</w>
scri bed</w>
scra tching</w>
sc end</w>
sau cy</w>
sacrifi ces</w>
s woop</w>
roo ted</w>
roo m
ro id</w>
ri e</w>
remar kable</w>
regi on</w>
re t
re sent
re flex</w>
rag gedy</w>
rabb its</w>
quick sand</w>
que tte</w>
pun ching</w>
pro vin</w>
pro motion</w>
pro fi
preten din</w>
pre scriptions</w>
pos iti
po stal</w>
po lit
plu to</w>
playo ffs</w>
pla toon</w>
pi rate</w>
phan toms</w>
petri fied</w>
persu a
person ality</w>
per sian</w>
patter ns</w>
pana mera</w>
pan ora
pain tin</w>
p u</w>
on eal</w>
od or</w>
ob scene</w>
ob jects</w>
o vation</w>
no ggin</w>
neme sis</w>
ne wark</w>
napo leon</w>
na palm</w>
na iled</w>
na e</w>
murciela go</w>
mun e</w>
motoro la</w>
motor cycle</w>
morph ine</w>
mo ld
mo gu
mo ans</w>
mm mm
miss our
mi sh</w>
mechan ic</w>
mea sures</w>
me lo</w>
mc m</w>
mc gra
mar inate</w>
mannequ in</w>
man ic</w>
main tain
ma shing</w>
m ound</w>
lo c
list ed</w>
lin d
la stin</w>
l ton</w>
l ite</w>
kin ky</w>
kha ki</w>
ken ess</w>
k rueger</w>
jud ged</w>
ju mper</w>
jo cking</w>
jeff rey</w>
je llo</w>
jamai cans</w>
is se
indu strys</w>
individu als</w>
in g
in f
im mune</w>
ignor in</w>
identi cal</w>
i o
hug ged</w>
hu b</w>
hoo drat</w>
homi cides</w>
ho ff
hin ges</w>
hel pin</w>
he it</w>
ha tas</w>
h u</w>
gu zz
gu wop</w>
grocer y</w>
grand daddy</w>
gra titude</w>
goli ath</w>
ger onimo</w>
ger many</w>
ge ico</w>
fun d</w>
fu ego</w>
fri sk</w>
fri sco</w>
frau du
for tun
for ni
for mat</w>
fooli shness</w>
fix in</w>
fit ness</w>
fir in</w>
fi lls</w>
fal cons</w>
f lan
f if</w>
excite ment</w>
exc ite</w>
esp n</w>
en vious</w>
en dea
emer ge</w>
ef for
e ses</w>
dwa mn</w>
dru m
dro me</w>
dri llin</w>
dogg z</w>
do ze</w>
do tted</w>
dit ty</w>
dia pers</w>
dia be
de spa
de ll</w>
d m</w>
d ge
d 12</w>
cy cles</w>
curren tly</w>
cur ses</w>
cru tches</w>
cru sty</w>
crea sed</w>
crazi est</w>
craw ling</w>
con es</w>
con du
color ado</w>
co zy</w>
co ins</w>
co inci
cl er
chi lled</w>
chevro let</w>
cha million</w>
cha mbers</w>
center fold</w>
car do</w>
cap su
ca ve
ca sper</w>
c ys</w>
bu llies</w>
bu ggy</w>
bu ff
bu cking</w>
bro o
break down</w>
bra dy</w>
boomer ang</w>
boo s</w>
boo k
bode ga</w>
bin go</w>
ber ries</w>
be longs</w>
ba ls</w>
ba dum</w>
ava ilable</w>
approa chin</w>
anni hi
anch or</w>
ana log</w>
an nu
an ne</w>
an ew</w>
adven tures</w>
ada ms</w>
ac s</w>
abra cadabra</w>
a qua
a an</w>
4 l</w>
4 2</w>
1 2
0 9</w>
zu u</w>
z im
yo tch</w>
yknah mean</w>
ya wn</w>
y i</w>
x es</w>
x 4</w>
wrest ling</w>
woo fers</w>
wicke dness</w>
whisp ering</w>
weigh in</w>
watch a</w>
volun te
voca bu
vis as</w>
van ess
va ting</w>
ur kel</w>
un t
tu t</w>
tu la</w>
tro y</w>
tra l</w>
to ed</w>
thin ker</w>
ther mo
ten ders</w>
ten der
televi sed</w>
tch up</w>
tali ban</w>
switch blade</w>
swi vel</w>
sub way</w>
su pre
su ited</w>
steph en</w>
star ed</w>
sta ting</w>
sta mpe
sta che</w>
sprin ter</w>
spi kes</w>
spee d
speci es</w>
sound scan</w>
sopr ano</w>
son y</w>
so pho
snea king</w>
smo ther</w>
slo b</w>
skele tons</w>
sig nifi
sicken ing</w>
si li
shif ts</w>
shif ted</w>
shepher d</w>
sha qui
sha ky</w>
sh as</w>
season ed</w>
se wn</w>
se min
scra pin</w>
schi zophren
scenari o</w>
sca ven
sal mon</w>
sa turn</w>
sa ken</w>
s ands</w>
ru th</w>
ru dolph</w>
roug e</w>
ro xan
ro mans</w>
ri sky</w>
repor ting</w>
reli eve</w>
re tri
ra ger</w>
r ougher</w>
r hu
r ha
r eet</w>
qu ran</w>
qu ad
pump kin</w>
psychi atri
proto col</w>
propag anda</w>
progra mmed</w>
pro ving</w>
pro test</w>
pre occupied</w>
pre ce
pon d</w>
poli s</w>
pi stons</w>
phi a</w>
ph ic</w>
pe er</w>
pe da
part yin</w>
pa tr
pa stors</w>
pa ro
p helps</w>
p d</w>
oo d</w>
od b</w>
o stri
o mega</w>
ni le</w>
negle ct</w>
na than</w>
mpe ts</w>
mon es</w>
mo ok</w>
mit che
missour i</w>
mir a</w>
mi zz
mel ting</w>
mat the
marty rs</w>
marke ting</w>
mar i</w>
man ll</w>
man aged</w>
magne tic</w>
mac ys</w>
ma ils</w>
m us</w>
lu mber
lone liness</w>
lon er</w>
li mbo</w>
lee ches</w>
la c
l ever
l ery</w>
knah msayin</w>
kit es</w>
kir k</w>
ke tchup</w>
k al</w>
ju x</w>
jo kers</w>
jenni fer</w>
ja ils</w>
introdu ction</w>
indi ct
in stance</w>
ig u
i zz
i son</w>
i da
hy un
hu a</w>
house hold</w>
hoo ch</w>
hi v</w>
hi ber
hen dri
hendri x</w>
hea led</w>
han gs</w>
ha mm
gu a</w>
gro om</w>
gri llin</w>
gri evin</w>
goo se
gi o</w>
ger m</w>
ge mini</w>
gall on</w>
g litt
g and
fur na
fuck boy</w>
fu gees</w>
fra med</w>
fore man</w>
fo ster</w>
flo ssy</w>
fi st
fa ck</w>
extre mely</w>
extra ordinary</w>
exor cist</w>
exi sted</w>
ex cep
er upt</w>
er ie</w>
en trance</w>
ele phan
ea ble</w>
e lles</w>
e di
du al</w>
dri ed</w>
dra wing</w>
down load</w>
doo kie</w>
dome stic</w>
do ggin</w>
disrespe cting</w>
disgui sed</w>
discre tion</w>
dia bo
di si
di c</w>
devo ted</w>
despa ir</w>
den tally</w>
den ny</w>
de pri
de bit</w>
dar k
d wayne</w>
cy press</w>
custo ms</w>
cu bans</w>
cran berry</w>
cra shing</w>
cor k</w>
convi ction</w>
conf using</w>
concer ts</w>
con veni
con no
con fron
con dos</w>
comm un
colo ssal</w>
coch ran</w>
clu bbin</w>
cli cked</w>
clean est</w>
clea red</w>
cla w</w>
citi zens</w>
cho s</w>
chee se
cere bra
cerebra l</w>
cen sor</w>
care fully</w>
can ni
ca stro</w>
ca pri
c rest</w>
c nn</w>
by gones</w>
bur g</w>
bun nies</w>
bu ns</w>
bron co</w>
brin k</w>
brigh test</w>
bree ds</w>
bor ne</w>
bor ate</w>
boo tle
boo lin</w>
boo ger</w>
bon in</w>
blo t</w>
big gs</w>
bi zz
bi ddy</w>
bea ming</w>
bar ney</w>
bar n</w>
bada ss</w>
back stabb
baby sitter</w>
b list
b ane</w>
awa ken</w>
at f</w>
at ari</w>
ar eas</w>
app a</w>
any thin</w>
anno ying</w>
an n</w>
an ces</w>
ala meda</w>
accor d</w>
abi de</w>
aa ah</w>
a my</w>
a mus
9 1</w>
200 1</w>
20 12</w>
zi k</w>
z os</w>
z art</w>
writ es</w>
worr yin</w>
wi lder</w>
whit er</w>
wa ges</w>
wa d</w>
w le
vo y
vibra te</w>
vers ity</w>
ver ted</w>
ver non</w>
vegetar ian</w>
ve ments</w>
val ry</w>
vac y</w>
v ana</w>
unfortun ately</w>
un usual</w>
un signed</w>
un seen</w>
un bea
umbi lical</w>
tur t
tren dy</w>
tray von</w>
tran qui
tra ding</w>
torna do</w>
ton i</w>
to ire</w>
tip to
time line</w>
ti ms</w>
thorough bred</w>
than kin</w>
tha m</w>
termin ator</w>
ter restri
tch ers</w>
tan ji</w>
suspi ci
su ave</w>
stun ner</w>
stu d</w>
stri fe</w>
stre tchin</w>
stra te</w>
stere o
ste w</w>
st ir
spl at</w>
speci alize</w>
spea rs</w>
sole mn
solemn ly</w>
so l</w>
sli ced</w>
sl an
skin nies</w>
sk ittles</w>
shor es</w>
shi a</w>
shaqui lle</w>
sha ckled</w>
sh eezy</w>
seren ge
separa tion</w>
senten ced</w>
sense i</w>
sen or
scre wing</w>
sco pic</w>
scar f</w>
sc roll</w>
san ova</w>
sa de</w>
sa ble</w>
s ence</w>
rubber bands</w>
ru lers</w>
ro ber
rhu mba</w>
ret ard</w>
resent ment</w>
reper toire</w>
reha bilit
ref used</w>
recei ving</w>
re tail</w>
re publi
rapi st</w>
rain bows</w>
ra sta
ra ris</w>
pur chased</w>
puni shment</w>
pun ani</w>
promo ter</w>
pro min
pri vacy</w>
premi er</w>
predi ct</w>
predi ca
por t
plea sant</w>
physi que</w>
phon ey</w>
phe ws</w>
perfe cted</w>
per kys</w>
per ish</w>
pen dant</w>
pas sports</w>
pan cakes</w>
pa wns</w>
p tic</w>
out line</w>
ou ses</w>
or tho
or ga
oooo ooooh</w>
oooo oh</w>
one ll</w>
offen sive</w>
off s</w>
ob i</w>
o vo</w>
o is</w>
nou ri
note book</w>
nor man</w>
no se
nex tel</w>
ne phews</w>
nan cy</w>
na stradamus</w>
mysti cal</w>
mu zik</w>
mu tual</w>
mu ther
mour ning</w>
mother land</w>
mothafuck ers</w>
mono ga
mo ly</w>
mitche ll</w>
milli e</w>
mi yag
metho ds</w>
merci less</w>
men stru
me mo</w>
mayba chs</w>
mau i</w>
mar yland</w>
mag got</w>
mac ita</w>
ma mba</w>
m claren</w>
lu ms</w>
loun ging</w>
lin ger</w>
lim it
libra ry</w>
len ny</w>
lee ch</w>
le ms</w>
la y
la ssie</w>
la shes</w>
knu ck
k nights</w>
ju ug</w>
jo es</w>
jig gle</w>
ja mming</w>
ja il
is ance</w>
inter tw
instru ments</w>
ingredi ents</w>
inclu ding</w>
in ted</w>
in stitution</w>
in som
in fla
impro ved</w>
ii an</w>
ido ls</w>
i ble</w>
hyun dai</w>
hypocr ite</w>
hun ters</w>
hu mp
hu ey</w>
hoo dy</w>
ho pper</w>
ho lly</w>
high lights</w>
he lli
he f
hawa iian</w>
hand cuff</w>
hamp tons</w>
ha ro
ha i</w>
h ir
gun z</w>
gue ssed</w>
gu shy</w>
grin ning</w>
grin der</w>
gren ades</w>
gree k</w>
grea ts</w>
grapev ine</w>
grand son</w>
goose bumps</w>
gen erals</w>
ga thered</w>
fru strated</w>
fri s
frequ ently</w>
foren sics</w>
for te</w>
for gives</w>
fo xy</w>
flu ent</w>
flam mable</w>
fla shes</w>
fin i
ff e</w>
fal con</w>
exp li
execu tion</w>
evi cted</w>
eu logy</w>
establi shed</w>
err body</w>
entertain ers</w>
en zo</w>
en vi
en try</w>
en sla
embarra ssing</w>
ela stic</w>
el z</w>
el m</w>
egypti an</w>
ear drum</w>
e ys</w>
e sll</w>
e sc
e gos</w>
due ce</w>
dri pped</w>
dri lls</w>
dran kin</w>
dr yer</w>
doom sday</w>
doo doo</w>
do mes</w>
do cks</w>
disapp ointed</w>
dis regard</w>
dire cted</w>
dia le
di arr
diarr hea</w>
den ted</w>
del phia</w>
dea ded</w>
de tail</w>
dd up</w>
dd on</w>
dd led</w>
dar th</w>
dan ced</w>
dai sy</w>
dah mer</w>
d mc</w>
d ity</w>
d ane</w>
cus sing</w>
cu ties</w>
cu bi
crack heads</w>
cra zed</w>
cor vette</w>
convi cted</w>
consequ ence</w>
conno isse
congre gation</w>
confe ssions</w>
con tribu
con ception</w>
compar ison</w>
commit tee</w>
comm ence</w>
colli sion</w>
co lt</w>
clo ver</w>
chro med</w>
chri stina</w>
chor es</w>
chief in</w>
chee ch</w>
cha me
centipe de</w>
cash mere</w>
cari b
car ton</w>
car go</w>
candle light</w>
califor ni
cal culate</w>
ca sanova</w>
ca ges</w>
c id</w>
but ler</w>
buck shot</w>
bro ws</w>
brazi lian</w>
brai lle</w>
br oug
br anded</w>
bon a
bo s</w>
bo la</w>
bloo m</w>
blind fold</w>
blin gin</w>
bla p</w>
bit ers</w>
bi as</w>
bea sts</w>
be gged</w>
bb er
bar neys</w>
bar gain</w>
ba ths</w>
ba kery</w>
auto matically</w>
at tire</w>
at m</w>
asy lum</w>
armor ed</w>
arma ge
ar chy</w>
appro pri
ang es</w>
an nie</w>
ameri cans</w>
al tar</w>
al lot</w>
air waves</w>
air planes</w>
afri cans</w>
ado p
ad vo
a gree
a chin</w>
8 1</w>
6ix9 ine</w>
3 57</w>
200 4</w>
1 80</w>
1 2s</w>
yon kers</w>
y ll</w>
xx x</w>
xan nies</w>
wre ck
wild er
whoo ped</w>
wh ine</w>
we b
wanna bes</w>
w rea
w der</w>
vis ine</w>
vi ral</w>
vaness a</w>
vali um</w>
valen tines</w>
vac ants</w>
va ble</w>
v lone</w>
uu u</w>
us age</w>
ug k</w>
u hm</w>
u ed</w>
twir l</w>
turn tables</w>
toba cco</w>
to l
tit o</w>
ther in</w>
th ongs</w>
testi cles</w>
terrestri al</w>
temp ted</w>
synon y
syn drome</w>
swoo sh</w>
swi sha
swisha house</w>
swi g</w>
sweat shirt</w>
sun days</w>
suit able</w>
sub mission</w>
su ed</w>
stor ch</w>
sti le
stea ks</w>
stan ky</w>
sta tu
sta ples</w>
st rollin</w>
st ride</w>
spir itu
spi lt</w>
spe w</w>
spe lls</w>
sopho more</w>
snor ting</w>
smar test</w>
slo pe</w>
sla yer</w>
sla ps</w>
sla pping</w>
sk ri
sil ver
si sta</w>
si blings</w>
shou tin</w>
shi pped</w>
sh an</w>
serpen ts</w>
serenge ti</w>
se gre
scra mbling</w>
sco ttie</w>
sch war
sca l
sc out</w>
sar ca
sandwi ches</w>
s igh
rug by</w>
roxan ne</w>
ro les</w>
ro ar
rin se</w>
reser vations</w>
regi stration</w>
regar ds</w>
redee m</w>
rea pp
re store</w>
re jo
re build</w>
ra ges</w>
quie tly</w>
quick est</w>
pur po
psy che</w>
pro wl</w>
privile ge</w>
princi ples</w>
pri cks</w>
por ce
po pper</w>
perman ently</w>
pea san
pe tro
pe pper
pe can</w>
para graph</w>
pa ths</w>
p unt</w>
p led</w>
ou i</w>
or che
offi cers</w>
od y
ob je
o llie</w>
o blon
nur ses</w>
nu isance</w>
nostri ls</w>
non stop</w>
no sey</w>
no ah</w>
nn nn
news paper</w>
neu tral</w>
ne th</w>
nah mean</w>
na vel</w>
n itty</w>
mysti kal</w>
myster ies</w>
mother ship</w>
mon t
mo town</w>
mm et</w>
mid gets</w>
me ow</w>
may bes</w>
mar vel</w>
ma ye</w>
ma tador</w>
ma dder</w>
ma cho</w>
lulla by</w>
logi cally</w>
lock down</w>
llo s</w>
liqu ors</w>
lin qu
li kin</w>
lemon s</w>
lei sure</w>
lea ks</w>
le gi
la tex</w>
la g</w>
la bor
kin e
k at
ju ices</w>
jose ph</w>
jin gle</w>
je di</w>
ja cker</w>
itt le</w>
it as</w>
isla mic</w>
iri sh</w>
io vine</w>
insecur ities</w>
infil tra
im us</w>
i lls</w>
i est</w>
hy dro
hur l</w>
hou dini</w>
hot line</w>
honor able</w>
ho ppers</w>
hit man</w>
hil ton</w>
hesit ant</w>
heck ler</w>
head line</w>
ha ven</w>
ha an</w>
gri pped</w>
gran nys</w>
goo dy</w>
goo dies</w>
go ok</w>
glit z</w>
glea min</w>
gla diator</w>
giusepp es</w>
ga z</w>
g ore</w>
fus sing</w>
fu gaz
fron t
fren zy</w>
fr ying</w>
for saken</w>
for gi
foo tage</w>
flu te</w>
fli cking</w>
firear m</w>
fe li
fe ces</w>
f yin</w>
f real</w>
exa gg
ev e
eti quette</w>
er son</w>
epit ome</w>
ep md</w>
enligh tened</w>
engine er</w>
eng land</w>
en tree</w>
ele cted</w>
ebon y</w>
ea ten</w>
e lli
e cho
e bay</w>
dun kin</w>
du el</w>
drif ting</w>
do h</w>
disrespe cted</w>
diplo ma</w>
dinosa ur</w>
din er</w>
dillin ger</w>
dig gie</w>
der eli
depos its</w>
den ying</w>
den yin</w>
dee pest</w>
decei ving</w>
de linqu
de ception</w>
da zed</w>
cruci fix</w>
cripp led</w>
cra shin</w>
corpor ations</w>
contin ent</w>
consig nment</w>
concentra tion</w>
con jure</w>
con front</w>
colu m
co mical</w>
che win</w>
che eri
chas es</w>
challen ging</w>
chain ed</w>
ch and
ce line</w>
casca de</w>
carni val</w>
cap tured</w>
cani bus</w>
ca tin</w>
ca kin</w>
c lan
bull shitting</w>
bul b</w>
brrr rr</w>
broug ham</w>
brave heart</w>
bott om
bl ender</w>
bea ver</w>
bea tch</w>
be tra
be ck
bazoo ka</w>
bar ker</w>
ballo ons</w>
balli stic</w>
back side</w>
awa ken
attemp ts</w>
atta ckin</w>
atta cked</w>
ath lete</w>
at las</w>
asi atic</w>
anten na</w>
ana con
an t
an al</w>
advo cate</w>
ad mir
ackno wle
accompli shments</w>
ab sence</w>
a pp</w>
a min</w>
a men
a hhhh</w>
a ero
5 4</w>
5 000</w>
3 hunna</w>
200 2</w>
20 10</w>
199 2</w>
10 1</w>
10 00</w>
zih zi
zihzi h</w>
yy ay
yee zys</w>
x box</w>
won da</w>
wol ver
withdra wa
win ter
wilder ness</w>
wif es</w>
wi c</w>
whi pla
wh eat</w>
weir do</w>
weap on
water melon</w>
war den</w>
wa u
vocabu lary</w>
vita min</w>
vi llian</w>
usa lem</w>
ur o</w>
upper cut</w>
up tight</w>
underesti mate</w>
under dawg</w>
un wind</w>
un ru
un heard</w>
u tter</w>
u t
tw er</w>
tu cky</w>
tu b
tub man</w>
tru ths</w>
tro pical</w>
trif lin</w>
tran sa
tra ils</w>
tou pee</w>
too thless</w>
ton ic</w>
tit led</w>
tig ers</w>
ti m
ti lted</w>
thor ns</w>
the ns</w>
ten ants</w>
ta gged</w>
t m
swe pt</w>
swan gs</w>
swa mp</w>
surgi cal</w>
stu ffing</w>
stro king</w>
strategi ze</w>
stin ky</w>
stile ttos</w>
sti cally</w>
star dom</w>
st ings</w>
st ine</w>
spin ners</w>
spi cy</w>
sovere ign</w>
sou ped</w>
so ta</w>
sna pple</w>
sli ther</w>
slee pless</w>
sla mmer</w>
six teens</w>
sig el</w>
si ls</w>
si ckle</w>
shu ttle</w>
shu ttin</w>
sho ve
she ddin</w>
sha ved</w>
sha ba
sh al
sev ens</w>
sedu ctive</w>
secre tary</w>
se ss</w>
se per
sca rier</w>
sca re
sca ms</w>
sc e
sa lm</w>
sa dly</w>
ro ve</w>
ro lly</w>
ro dman</w>
rich mond</w>
ri ots</w>
ri o</w>
restaur ants</w>
requ ire</w>
repea tedly</w>
religi ons</w>
recog n
recogn ition</w>
re turns</w>
re tro</w>
re tro
re set</w>
re sent</w>
re commend</w>
ra tional</w>
ra sca
ra ced</w>
ra bies</w>
questi oning</w>
qu ate</w>
punch line</w>
pul sive</w>
pu ke</w>
pu ffs</w>
pron oun
pro position</w>
pres ley</w>
pre meditated</w>
pre cha
pp s</w>
post ure</w>
porce lain</w>
por es</w>
poli ce
pione er</w>
pin kie</w>
phi lli
pen elope</w>
par rot</w>
par en
p salm</w>
p or</w>
p lex
ous ers</w>
ostri ch</w>
ore o</w>
or angu
opera ting</w>
oooo o</w>
on o
no sy</w>
no stra</w>
nip sey</w>
nie ces</w>
ni ce
nation wide</w>
mutha f</w>
mu ffin</w>
mor ti
miyag i</w>
min g
mi zed</w>
mi mo
medi an</w>
me ss
mc queen</w>
mb ly</w>
man ner</w>
man ana</w>
mag ni
ma z
lu s</w>
loun gin</w>
long ev
le z</w>
le precha
la mbos</w>
l vani
l ang</w>
kor ean</w>
knowi msayin</w>
kno tty</w>
ki sh</w>
ki lo
ken tucky</w>
kango ls</w>
kango l</w>
k ross</w>
k ore
k ent</w>
k ay
juli us</w>
joh ns</w>
jer usalem</w>
je ter</w>
ja zzy</w>
investig ation</w>
invest ment</w>
intere sting</w>
instru ment</w>
inf ant</w>
in spe
im pe
iiii iii
iiii ii
ig nment</w>
ido lize</w>
i sts</w>
i cu</w>
hur rah</w>
hunn it</w>
hu mans</w>
hitt as</w>
hit ler</w>
hin d
hi ba
h int</w>
gu mbo</w>
gu dda</w>
gre tz
gra ham</w>
gra ce
ghou l</w>
gh ani
ga ug
ga ta</w>
ga ssin</w>
g listening</w>
g lee</w>
g c</w>
g ant</w>
fugaz i</w>
fug itive</w>
fri ction</w>
free stylin</w>
free ly</w>
for tress</w>
foot prints</w>
foo ds</w>
fo ssi
flir ting</w>
fli ckin</w>
fli cker</w>
flash back</w>
fla ir</w>
fla ggin</w>
fit test</w>
finger prints</w>
fin ed</w>
fi er
fe ud</w>
far mer</w>
fan ta</w>
fa sho</w>
f right</w>
f c</w>
extor t</w>
en o</w>
en ess</w>
elephan ts</w>
ele ct</w>
earthqua kes</w>
e den</w>
dump ster</w>
dro gas</w>
don ny</w>
dogg father</w>
do lls</w>
dit ches</w>
distur bed</w>
disc reet</w>
di ving</w>
di a</w>
develo p</w>
dep th</w>
den iro</w>
defen ding</w>
de li</w>
de cks</w>
de but</w>
day ton
da fi</w>
d iti
cul ty</w>
cu mming</w>
cu lo</w>
courtro om</w>
conver t</w>
concl usion</w>
columbi a</w>
colu mn</w>
colombi an</w>
co ons</w>
co ll
cli ckin</w>
charac ters</w>
chap ters</w>
cha pp
cen tu
cen tly</w>
ce li
car pen
cap o</w>
ca tcher</w>
ca lor
bubble gum</w>
bub bling</w>
bu yers</w>
bre a</w>
bow lin</w>
bottom less</w>
bor o</w>
bor ders</w>
boo ties</w>
boo by</w>
bon us</w>
bomb in</w>
blu ffing</w>
blin king</w>
bli mp</w>
bit che
bin ge</w>
bear er</w>
bar k
bai lin</w>
b dp</w>
b blin</w>
ax is</w>
avalan che</w>
assass inate</w>
assass in
arr ange
armage ddon</w>
ar no
ar cade</w>
anten nas</w>
an ton
an tic</w>
an thrax</w>
an or
ala ska</w>
al titude</w>
air play</w>
affe cted</w>
ade quate</w>
abra ham</w>
a tics</w>
a hurrah</w>
a ff
199 1</w>
z ies</w>
yo ta</w>
yo da</w>
y ar
wr ench</w>
won ders</w>
wi ser</w>
wi pes</w>
wi llies</w>
wi lin</w>
who le
whipla sh</w>
wha cked</w>
wea kest</w>
wal ter</w>
vio lin</w>
vio lator</w>
vi cin
vicin ity</w>
venti late</w>
van da
va do</w>
under statement</w>
un limited</w>
u k</w>
ty ra</w>
tro pics</w>
tri llest</w>
tri lla</w>
tra mpo
tra mp
tra k</w>
tra itor</w>
tra iner</w>
tra ck
tr ousers</w>
tor so</w>
tol erate</w>
toa stin</w>
to v</w>
ti vo</w>
ti pped</w>
thu r</w>
thin s</w>
thea d</w>
testi mony</w>
testa ro
termin ate</w>
ter ies</w>
ten in</w>
tele scope</w>
teena ger</w>
techno logy</w>
tax ing</w>
tar an
tal ker</w>
tain ted</w>
t oun
supp lyin</w>
super stars</w>
sun ken</w>
stro kes</w>
strick en</w>
stri king</w>
strea ms</w>
stre tching</w>
stor ed</w>
stock ings</w>
stea ming</w>
ste ph</w>
stan ley</w>
stabb ing</w>
sprin k
spor tin</w>
splitt ing</w>
spi ral</w>
sp at</w>
sp a</w>
so lete</w>
sna il</w>
sla ckin</w>
sky pe</w>
ske lly</w>
sk it</w>
side lines</w>
si mons</w>
show time</w>
shot guns</w>
sh is</w>
sett ling</w>
ser y</w>
sen i
sele ction</w>
sele ct</w>
se ctions</w>
scor es</w>
sav ings</w>
sati va</w>
san dy</w>
sal on</w>
sa fer</w>
s ought</w>
s king</w>
run neth</w>
ru led</w>
ru cker</w>
ru bies</w>
rosco es</w>
ri sks</w>
rhy mers</w>
revea led</w>
respe ctin</w>
rememb ering</w>
rema ined</w>
relax ing</w>
rejo ice</w>
regi ster</w>
ree se</w>
red d</w>
reason able</w>
rea lm</w>
re que
re id</w>
re hearse</w>
ran ch</w>
ram page</w>
ra mp</w>
ra d</w>
r ys</w>
r he
rhe tor
r anger</w>
quin cy</w>
pupp ies</w>
pul p</w>
pu ddles</w>
prote cting</w>
premi ere</w>
pollu tion</w>
po sting</w>
po op</w>
po go</w>
plu ral</w>
plat form</w>
pire llis</w>
pin ned</w>
pier ced</w>
pi sc
pi lates</w>
pet ite</w>
per ception</w>
peasan ts</w>
pe l
patri ot</w>
pati ents</w>
parti cular</w>
pa cs</w>
p ses</w>
over throw</w>
over load</w>
outsi ders</w>
ough s</w>
ou tro</w>
ou h</w>
ot f</w>
op erator</w>
oli via</w>
ol de</w>
ob solete</w>
ob no
o tis</w>
o scars</w>
no ahs</w>
ni cole</w>
ni cer</w>
na sir</w>
mu cho</w>
mo vements</w>
mo sque</w>
mo ore</w>
mo men
mis sus</w>
min nie</w>
min ne
micro scopic</w>
mes meri
mer cur
mercur y</w>
medi cate</w>
mea su
me la</w>
me dals</w>
mb r
matthe w</w>
mar ine</w>
mar bles</w>
mana gement</w>
man ual</w>
man ning</w>
make shift</w>
ma veri
ma mmy</w>
ma macita</w>
m mies</w>
lu ger</w>
low rider</w>
lor dy</w>
loo m</w>
longev ity</w>
lo gna</w>
lo e</w>
lo ans</w>
lli ed</w>
lin x</w>
life line</w>
li ve
li on
li cor
licor ice</w>
le op
le on
le c
ld ing</w>
law less</w>
laun cher</w>
lar gest</w>
la ma</w>
la la</w>
l ition</w>
knock out</w>
kna p
kit ted</w>
k ate</w>
ju gular</w>
jere my</w>
ja z</w>
ja mie</w>
ja gs</w>
ja cent</w>
j j</w>
j id</w>
introdu cing</w>
inte gra
initi als</w>
in tru
in trig
in stig
in jure</w>
in i</w>
in famous</w>
in ev
imit ating</w>
im prove</w>
i ver
hypocr ites</w>
hypo cri
hy de</w>
hus slin</w>
hu u
ho ver</w>
ho ly
hit ch
hide out</w>
hhhh hhh</w>
her bal</w>
heine ken</w>
hea thens</w>
hea p</w>
he mi</w>
hand out</w>
hand in</w>
han as</w>
ha ley</w>
gun fire</w>
gu ish</w>
gri se
gra ved</w>
gra v
gooo ot</w>
ghani stan</w>
ger ms</w>
gaug es</w>
gar vey</w>
gand hi</w>
g wap</w>
furna ce</w>
fro st
frequ ency</w>
for gettin</w>
follo wer</w>
flo ckin</w>
flee ce</w>
fil ter</w>
fier ce</w>
ff lin</w>
fee ds</w>
faul ty</w>
eye brows</w>
extra s</w>
expli cit</w>
exi sts</w>
exhi bit</w>
ex al
esca ping</w>
er ated</w>
equ ation</w>
enjo yed</w>
en za</w>
en ten
en han
embarra ss</w>
ei ffel</w>
ee ee</w>
earlo be</w>
e uro</w>
e ject</w>
e dit</w>
e che
dut chie</w>
dren ched</w>
dread lock</w>
dou bled</w>
don ut</w>
doc tr
di zzle</w>
di vin</w>
di sin
di os</w>
devo tion</w>
dete ct</w>
deser ving</w>
der rick</w>
demonstra tion</w>
de x
de ta
de hydra
dd ling</w>
d lock</w>
cy ni
custo dy</w>
cu ti
cu n</w>
cru shing</w>
crow ns</w>
coron a</w>
concei ved</w>
con stitution</w>
con ni
con gress</w>
colon y</w>
colle cting</w>
co very</w>
co tt
co pper
clu tching</w>
clu eless</w>
clo ck
clit or
cli ppers</w>
cinna ti</w>
cin cinnati</w>
ci ously</w>
cho ke
chi o</w>
che lla</w>
chan nels</w>
ch y
certi fi
ce llar</w>
cc i</w>
cata log</w>
car ti
cap ers</w>
can cun</w>
ca pri</w>
ca pi
ca es
bush wick</w>
bun cha</w>
bui ck</w>
bu m
bu ff</w>
br and
borro wed</w>
bo ppers</w>
bo maye</w>
bo lts</w>
bo ils</w>
bo i
blos som</w>
blon d</w>
blasphe my</w>
bla zer</w>
bla cking</w>
bir dy</w>
bian ca</w>
bi ans</w>
ber nie</w>
beli efs</w>
begin ner</w>
be tray</w>
be cks</w>
barbe que</w>
ban gs</w>
ban do</w>
ball er
ba dly</w>
at ory</w>
assu mptions</w>
ass ured</w>
arno ld</w>
ar ou
ar chi
appea ling</w>
ano tha</w>
ani mo
am pu
am or</w>
all ure</w>
ali bi</w>
ala ddin</w>
al ge
al a</w>
adver ti
ad jacent</w>
acci dentally</w>
a u</w>
a ta</w>
a hhhhh</w>
a at</w>
3 1</w>
199 9</w>
199 0</w>
13 th</w>
ziplo c</w>
ye lls</w>
y mc
ymc mb</w>
x in</w>
wy clef</w>
worr ying</w>
wonder land</w>
wo bble
win ded</w>
willi s</w>
wi ping</w>
whoo o
wh ered</w>
weigh ing</w>
wea ves</w>
war min</w>
wa le</w>
w o</w>
voice mail</w>
uuuu uuuu
uu u
up lift</w>
unru ly</w>
un comfortable</w>
ty rant</w>
tus sle</w>
tu mble</w>
tt en
tre sses</w>
tran spar
tran smi
trampo line</w>
tr u</w>
tou rist</w>
ton ey</w>
toma to</w>
to kin</w>
tigh tly</w>
tiff any</w>
thro b</w>
the ms</w>
ten ts</w>
tea r
tantru m</w>
tan ts</w>
ta mmy</w>
ta hoe</w>
sylla ble</w>
swan ging</w>
surroun din</w>
surpri ses</w>
suggesti ons</w>
su tra</w>
stun ned</w>
strugg led</w>
str eng
str ang
str and</w>
star es</w>
sta gg
squirre l</w>
squ atch</w>
splin ter</w>
spla shed</w>
speci fi
sour ces</w>
sni p</w>
sni ffed</w>
smea red</w>
slo win</w>
sizz urp</w>
si pper</w>
si ke</w>
shor t
sh room</w>
sedu ce</w>
se er</w>
se dated</w>
scre w
scra tches</w>
scen ts</w>
sc ro
sc ence</w>
samu ra
sa squatch</w>
ry ders</w>
ru ple</w>
roy ces</w>
rottwe ilers</w>
roller coaster</w>
ro b
ri pe</w>
ri ck
ri bu
repea ts</w>
ren ai
renai ssance</w>
rela tive</w>
rebu ke</w>
re serve</w>
re moved</w>
re main
re locate</w>
re cently</w>
re birth</w>
rain drops</w>
r ita</w>
quick ie</w>
qui z</w>
que er</w>
quad ruple</w>
qu ita</w>
publi shing</w>
ps c</w>
promi sing</w>
pro b</w>
princi ple</w>
pri ced</w>
predica ment</w>
pou pon</w>
por n
pop si
poo kie</w>
pon y
pollu ted</w>
po ly
po e</w>
plu mmet</w>
pli ers</w>
pla gue</w>
pisc es</w>
pin a</w>
pick up</w>
pic nic</w>
phi la
pharma cy</w>
pha ses</w>
pede stri
pe on</w>
pe li
p ry</w>
p ong</w>
p lies</w>
ow ww</w>
or ities</w>
oni cs</w>
om ni
occur red</w>
oc ta
obno xious</w>
obe se</w>
o live</w>
no ses</w>
no i
nig s</w>
nico tine</w>
ni cho
negle cted</w>
nega tivity</w>
ne lson</w>
ne ll</w>
narco tic</w>
n un
n ough</w>
n ear
must ang</w>
mun do</w>
muh fuckas</w>
mu sty</w>
motha fuck</w>
mon ia</w>
moan in</w>
mo zart</w>
mo lo
mmi e</w>
minu m</w>
minne sota</w>
mi ls</w>
mer chan
men tor</w>
medicin al</w>
mari on</w>
mar k
man slaughter</w>
man hood</w>
main ly</w>
ma pped</w>
m hmm</w>
lvani a</w>
lulla bies</w>
lu ke
luke warm</w>
lu cked</w>
lli gan</w>
lla mas</w>
listen er</w>
list erine</w>
lind say</w>
lin i</w>
lega lly</w>
lea gues</w>
laun ch</w>
lan ter
lan do</w>
lac tose</w>
ko ch</w>
knuck le
knap sack</w>
ki ki</w>
ki a</w>
kar di</w>
k le
k kk</w>
k ev
k d</w>
ju elz</w>
ju das</w>
jo ined</w>
jin ga
jinga lin</w>
jer ked</w>
jan itor</w>
ja y
is ley</w>
inva ded</w>
inter galactic</w>
inte stin
insi st</w>
inser t</w>
infe cted</w>
in j
in dig
impre g
imma ture</w>
imit ation</w>
imagin ary</w>
imag ining</w>
imag ined</w>
im po
ill iterate</w>
idi ots</w>
ici cle</w>
i zzy</w>
i vy</w>
i dle</w>
hus bands</w>
hu mpin</w>
hu ffin</w>
hori zon
hon ors</w>
hoff a</w>
hind sight</w>
hi ppy</w>
hi ppie</w>
hea lin</w>
hal ves</w>
ha ter
ha teful</w>
h n</w>
h ana</w>
gun shot</w>
gueri llas</w>
gucc is</w>
gu mp</w>
gra ded</w>
good fellas</w>
goa lie</w>
glo ver</w>
gla dys</w>
gi ra
g ust</w>
fru stration</w>
frigh tening</w>
free zes</w>
fortun ate</w>
forgi a
for gis</w>
fo il</w>
flex ible</w>
flat bush</w>
ff led</w>
fee ts</w>
fear ing</w>
fe lla
fai ling</w>
fa ye
fa irs</w>
extrava gant</w>
explan ation</w>
exce ssive</w>
exa mples</w>
ex posure</w>
ex ception</w>
ess ential</w>
err thang</w>
epi demic</w>
envi yon</w>
endor se
en graved</w>
emp loy
emb lem</w>
eche lon</w>
ear ning</w>
e man
e ddy</w>
dun gar
dro ol</w>
dra wls</w>
doo bies</w>
di ffer</w>
di cate</w>
dev ice</w>
despera do</w>
den ver</w>
democra cy</w>
dele ted</w>
deci mals</w>
dece it</w>
de mented</w>
de fy</w>
day dream</w>
cur sing</w>
cur ed</w>
cu tters</w>
cu lous</w>
cu b</w>
cru sher</w>
cro ps</w>
crea tures</w>
crazi er</w>
cr in
cover ing</w>
cou ra
corrup tion</w>
cor ks</w>
cop y
congratu late</w>
confron tation</w>
confi sca
confi de</w>
conf usin</w>
comman d
collap sed</w>
cock sucker</w>
co stu
co ma
co cks</w>
clo cked</w>
clitor is</w>
clin ed</w>
clea rs</w>
cla pper</w>
cir cling</w>
ch yeah</w>
celebr ities</w>
cata ra
casu ally</w>
cartri dge</w>
car ved</w>
car t</w>
car lton</w>
car los</w>
ca stles</w>
ca ss</w>
ca bs</w>
c b
bu mpy</w>
bro lic</w>
bro die</w>
brain washed</w>
br r
br ands</w>
boun cer</w>
bo ssing</w>
bo mbers</w>
bo ca</w>
blan ks</w>
bla ke</w>
bl er</w>
birth place</w>
bikin i</w>
bi onic</w>
benz ino</w>
beni hanas</w>
believ es</w>
bela ire</w>
bel ve
bee zy</w>
bed time</w>
bea ring</w>
bare foot</w>
barber shop</w>
banda ges</w>
ba ch</w>
b x</w>
b ang
att ribu
at is</w>
arti ficial</w>
ar thur</w>
appropri ate</w>
appreci ation</w>
app lied</w>
animo sity</w>
ange lina</w>
amp lified</w>
alu minum</w>
alle ys</w>
al ities</w>
af ghanistan</w>
aca de
aa aa</w>
a ton
a o</w>
a ching</w>
a broad</w>
4 4s</w>
2 9</w>
1 5th</w>
1 5s</w>
zz in</w>
zo diac</w>
zi zah</w>
zi pped</w>
ze ment</w>
ze bra</w>
za gs</w>
z y
z oned</w>
yu ugh</w>
your selves</w>
you ths</w>
ya pping</w>
ya c</w>
y vette</w>
world star</w>
wit s</w>
who mp</w>
who ll</w>
who evers</w>
wher ea
wh inin</w>
weapon ry</w>
wea ker</w>
we ddin</w>
wait ers</w>
vo l</w>
vix en</w>
vivi ca</w>
vi per</w>
vi king</w>
vel cro</w>
var ious</w>
van nah</w>
v ard</w>
ur in
unra ve
uni versity</w>
un leash</w>
un faithful</w>
twi sta</w>
tur in</w>
tur d</w>
troop ers</w>
tro phies</w>
tro pez</w>
tri bal</w>
tremen dous</w>
transpar ent</w>
transmi ssion</w>
tr ys</w>
tho ttie</w>
thi e</w>
the ology</w>
tex aco</w>
testaro ssa</w>
ter al</w>
teena gers</w>
ta tive</w>
ta bly</w>
t reason</w>
t angle</w>
swa n</w>
sur fin</w>
suppor tin</w>
supp lying</w>
sun da
subtra ct</w>
stu dded</w>
stra l</w>
sto pper</w>
stit ched</w>
star r</w>
st ou
ss ers</w>
sponsor ed</w>
spar row</w>
sp re
sp angled</w>
sor cer
sno ops</w>
smur f</w>
sky line</w>
sk id</w>
sig nals</w>
si zes</w>
shou ting</w>
shir ley</w>
shi ppin</w>
shee k</w>
shal t</w>
shaba zz</w>
sha pes</w>
sha m
sh ey</w>
sexu ally</w>
seren ade</w>
senor ita</w>
sea food</w>
scree ch</w>
scra per</w>
scor ed</w>
schwar z
schizophren ic</w>
sai yan</w>
sa usage</w>
sa ssy</w>
sa gging</w>
sa be</w>
s men</w>
s ma</w>
rr a</w>
roo fs</w>
ron do</w>
ro s</w>
ro ok</w>
ri coch
ricoch et</w>
ri cans</w>
revea ling</w>
retali ate</w>
rese mble</w>
represen ts</w>
repl en
ree ves</w>
rebe lli
reali zin</w>
re write</w>
re v</w>
re spira
re jected</w>
re drum</w>
ray mond</w>
ran ks</w>
rama dan</w>
ra sp
r mm</w>
qua ke</w>
qu o</w>
qu its</w>
pur r</w>
pun chin</w>
publi city</w>
prope llers</w>
presen ts</w>
presen tation</w>
pre stig
pr yor</w>
pr rra</w>
pr one</w>
pot nas</w>
porn star</w>
poor er</w>
po x</w>
po on</w>
po cke
pi lin</w>
phi cs</w>
persi st
per mit</w>
pea sant</w>
pe tro</w>
pe lla</w>
pe do
pay check</w>
panora mic</w>
pan demon
pandemon ium</w>
pac qui
pa mela</w>
pa ki
p ty</w>
p ear</w>
opportun ities</w>
off a</w>
ody ssey</w>
o y
o men</w>
o ct
oct ane</w>
o ck</w>
o bies</w>
nur sery</w>
nug gets</w>
no ts</w>
no tion</w>
no oo</w>
nigh tly</w>
ni zzle</w>
ni shed</w>
new ton</w>
new ports</w>
na n</w>
n eat</w>
mur ray</w>
mu shrooms</w>
moo dy</w>
monu mental</w>
mon k</w>
mo sh
mo ro
mm h</w>
mid as</w>
mer lot</w>
mer ely</w>
men tions</w>
men ac
mel tin</w>
me te
me cca</w>
mc cart
mb ine</w>
mar gin</w>
manife sted</w>
man de
mande la</w>
ma yo</w>
ma dman</w>
ma d
ma am</w>
lur es</w>
lu mber</w>
lu bri
ll out</w>
lit era
litera ture</w>
lin gu
ligh ty</w>
liber ace</w>
li v</w>
les bian</w>
len ox</w>
lea din</w>
land in</w>
la kes</w>
l v</w>
l ero
ki lla
kar mas</w>
kar dashi
k re
k an</w>
juli o</w>
jo g</w>
jim i</w>
jewel ers</w>
jea h</w>
it t</w>
is ms</w>
inj ured</w>
inev itable</w>
in ject</w>
in gle
ingle wood</w>
impro vement</w>
im posters</w>
ig loo</w>
i q</w>
hypocri sy</w>
hypno tic</w>
hydr ant</w>
huu aa</w>
hu la</w>
hor mones</w>
hoo ters</w>
hoo kin</w>
hon ored</w>
ho ped</w>
ho gan</w>
high light</w>
heta mine</w>
her pes</w>
hel pless</w>
hea then</w>
hand ing</w>
hand guns</w>
hair line</w>
haha haha
grise lda</w>
gri ff
gretz ky</w>
grand mothers</w>
gran ts</w>
gran ite</w>
go tham</w>
glor ia</w>
gi lle
gi l</w>
gett ers</w>
ge ons</w>
gar t</w>
gar lic</w>
gar gle</w>
ga ble</w>
ga b</w>
g ments</w>
g ered</w>
fun dam
fu h</w>
fu fu</w>
fu bu</w>
fris bee</w>
fore cast</w>
foo ling</w>
fol gers</w>
fo xx</w>
fo lder</w>
flu ke</w>
flin t</w>
fli pper</w>
fla ttery</w>
fin a</w>
fi sher</w>
fi de</w>
fe ma</w>
fatig ue</w>
fashi oned</w>
far go</w>
extor ted</w>
extin ct</w>
exper t</w>
expe ctin</w>
exal ted</w>
ex changed</w>
every days</w>
eva cu
eri ca</w>
entertain er</w>
east wood</w>
ear ring</w>
ear nin</w>
e ste
e ski
e ights</w>
dwe lling</w>
du ll</w>
domin o</w>
domin ation</w>
dolph in</w>
dod ger</w>
distribu tion</w>
diso be
disi ac</w>
discus sing</w>
di ana</w>
dev ou
determin ation</w>
destin ys</w>
demo lition</w>
delor es</w>
defen sive</w>
dee z</w>
deb ts</w>
dea th
dea con</w>
de part</w>
da vi
da tin</w>
d oug
d board</w>
ct or
cry stals</w>
coun ters</w>
coron ers</w>
corner ed</w>
cor pses</w>
coo k
contra band</w>
connoisse ur</w>
comple ted</w>
comman der</w>
com partment</w>
com ment</w>
colu mbine</w>
colle ctin</w>
coa sts</w>
coa chella</w>
co ws</w>
co ca
cli ent</w>
cli che</w>
cla ws</w>
cke ys</w>
ck ie</w>
civili zation</w>
civi c</w>
chea ter</w>
che w
cham ps</w>
centu ries</w>
celi bate</w>
cat fish</w>
car in</w>
car at</w>
can ned</w>
can es</w>
ca ved</w>
ca the
ca king</w>
c pt</w>
c 4</w>
bur p</w>
bru shed</w>
brea kers</w>
br rr</w>
br iti
bou quet</w>
boo p</w>
boo m
bo a</w>
bli ge</w>
bla min</w>
bir die</w>
betra yed</w>
bed ded</w>
bea ters</w>
barbar ian</w>
ball ys</w>
ba bo
b angles</w>
ay yo</w>
ash ley</w>
as sets</w>
argu ment</w>
archite ct</w>
ara b</w>
ar son</w>
appro ve</w>
app les</w>
anticipa ted</w>
ange la</w>
and re
ama zement</w>
am g</w>
allo wan
alge bra</w>
ak bar</w>
ain e</w>
ag reed</w>
adven ture</w>
accu mu
a war
a tro
a tcha</w>
a pe
a mp</w>
a lled</w>
a hem</w>
3 8s</w>
zon ing</w>
zi p
zer land</w>
youknowhati msayin</w>
yor ks</w>
yea st</w>
ya ck</w>
y ves</w>
y sl</w>
y al</w>
wy lin</w>
wo a
witne ssin</w>
winter time</w>
wil son</w>
wi zz
wi sh
wi pin</w>
whooo a</w>
wherea bouts</w>
what eva</w>
wh ea
wh ales</w>
web site</w>
we tted</w>
wallabe es</w>
wa ste
wa kes</w>
wa ffles</w>
voy age</w>
vol vo</w>
vio lated</w>
vin es</w>
vi co
versa tile</w>
ver tical</w>
va tor</w>
v ou
v ities</w>
v d</w>
ur ine</w>
uni fy</w>
uni fied</w>
un predictable</w>
un aware</w>
u ter
twit ch</w>
tu ff</w>
tt ys</w>
tru mpets</w>
tru mp
trump et</w>
transla tion</w>
tr is</w>
tr ane</w>
too ly</w>
todd ler</w>
to ssing</w>
tm z</w>
tit les</w>
ti thes</w>
threa ds</w>
thor n</w>
the less</w>
ter ia</w>
temp tations</w>
tea m
te mp</w>
te ka
tch y</w>
tai l
t ying</w>
t n</w>
t lan
t ang
syn thetic</w>
symp toms</w>
sylla bles</w>
swit zerland</w>
suspici on</w>
suppor ted</w>
supp lies</w>
stun ning</w>
stu dying</w>
stre ss
stin ks</w>
stimu late</w>
sti es</w>
sta mped</w>
sta llin</w>
sta cey</w>
st even</w>
st ench</w>
st eep</w>
spin al</w>
specu lation</w>
sp ear</w>
sound track</w>
soar ing</w>
so ar</w>
snor ing</w>
smea r</w>
smar ts</w>
slan ted</w>
sku lls</w>
skrr r</w>
ski lled</w>
si stas</w>
si mp</w>
she ll
shar es</w>
shake spea
sh one</w>
set up</w>
ser ver</w>
seiz ures</w>
se tter</w>
scu m
scu l
scro tum</w>
scri bble</w>
scor ing</w>
scor chin</w>
sco pes</w>
schwarz ene
sca to</w>
sc rapp
san ne</w>
sai ling</w>
sa vannah</w>
sa ran</w>
sa q</w>
s word
s ends</w>
ry de</w>
ru ling</w>
ro ys</w>
ro ley</w>
righte ousness</w>
ridd les</w>
ridd ance</w>
rhin e
revi val</w>
resurre cted</w>
represen ter</w>
ren ti
ren o</w>
ree f</w>
reclin ing</w>
rearr anged</w>
reapp ear</w>
rea der</w>
rea ches</w>
re vo
re fill</w>
ra saq</w>
ra ping</w>
r u</w>
quen tin</w>
qu il</w>
pussy cat</w>
pu rest</w>
pu ck</w>
psycho path</w>
provi der</w>
proto type</w>
produ cts</w>
produ cin</w>
pre ven
poun din</w>
portra its</w>
pope yes</w>
po tions</w>
plu m</w>
plea sures</w>
plea s</w>
pivo tal</w>
pit er</w>
pit bulls</w>
pin oc
pi x
pi llow
pi les</w>
phila delphia</w>
pher na
pherna lia</w>
per cy</w>
pen ding</w>
pee king</w>
pedo phi
pe sti
pe ssi
pe ed</w>
para phernalia</w>
paper ed</w>
pain less</w>
pacqui ao</w>
pa tches</w>
pa ste</w>
pa ces</w>
p g</w>
p c</w>
over board</w>
out let</w>
oun t</w>
ortho dox</w>
oppre ssion</w>
ooo aa</w>
oo ze</w>
oo ouh</w>
olym pics</w>
o zs</w>
o tt</w>
o dd
no minated</w>
nick named</w>
nep tunes</w>
neigh bour
nei mans</w>
nea rest</w>
na zare
na tures</w>
n iro</w>
mutha fuck</w>
mus h</w>
mun chies</w>
mu stache</w>
mu cha
mosh pit</w>
mor a</w>
moon walk</w>
moo lah</w>
mogu l</w>
mo llies</w>
mo lest</w>
mit t</w>
mis fits</w>
mini stry</w>
mil wau
mi st
mess enger</w>
mer ri
medi cated</w>
mea gan</w>
me ls</w>
me dley</w>
masturba te</w>
mar row</w>
mail man</w>
mai son</w>
ma tch
ma sse
ma squ
ma lls</w>
m ant</w>
low life</w>
long ings</w>
lo gos</w>
lo ch</w>
ll lll</w>
lin er</w>
li sm</w>
li bra</w>
lever age</w>
lev y</w>
leprecha un</w>
le um</w>
law d</w>
lar ity</w>
lanter n</w>
lamborghin is</w>
la mpin</w>
l th
know msayin</w>
kitch ens</w>
kid d</w>
ki cker</w>
key shia</w>
ke ke</w>
ke es</w>
kan yes</w>
kan ga
k on
k its</w>
k appa</w>
jug ger
jugger na
ju piter</w>
jo c</w>
jer ks</w>
ja k</w>
ja c
iver son</w>
isa ac</w>
invol ve</w>
intestin es</w>
interlu de</w>
inher ited</w>
infli cted</w>
infan ts</w>
in ning</w>
ice man</w>
i lla</w>
i la</w>
i fs</w>
i con
icon ic</w>
hren heit</w>
hood lums</w>
holy field</w>
ho ma</w>
ho ein</w>
hick ory</w>
hi lla
hi bit
hein ous</w>
he f</w>
haro ld</w>
hard t</w>
har lems</w>
hamp ton</w>
ha tch</w>
gun powder</w>
guer rilla</w>
gu in</w>
gru ff</w>
gro wed</w>
gri me</w>
gri llz</w>
gree z</w>
grand pa</w>
gra ze</w>
gor don</w>
gon n</w>
glo d</w>
gig antic</w>
gi an
gen e</w>
gang bangers</w>
ga ze</w>
ga vel</w>
g za</w>
g wan</w>
g len
g lan
free base</w>
fre ight</w>
fraudu lent</w>
frank ly</w>
for ties</w>
for ming</w>
fo sho</w>
flu shed</w>
flo ats</w>
flint stone</w>
fli er</w>
fla min</w>
fl un
finger nails</w>
fin s</w>
fin icky</w>
fi ckle</w>
fascin ated</w>
fai lures</w>
faci lity</w>
fa hrenheit</w>
fa der</w>
fa ctors</w>
f k</w>
exp ired</w>
ev ed</w>
et cetera</w>
en vision</w>
employ ment</w>
em pathy</w>
elec tro
ela borate</w>
e p</w>
e la</w>
e ber</w>
dungar ees</w>
dun ny</w>
du tches</w>
drin ker</w>
door mat</w>
don tcha</w>
don k</w>
do main</w>
do g
dis order</w>
din gly</w>
diale ct</w>
di le
dev in</w>
dete ctives</w>
dete ctive</w>
den se</w>
demon ic</w>
deman ding</w>
decor ated</w>
deba tin</w>
de ton
de spi
de par
de greez</w>
dd it</w>
dd ers</w>
da ko
da a</w>
d z</w>
d itions</w>
cy rus</w>
cro cker</w>
craf ted</w>
coun se
coug ars</w>
corre ctly</w>
corn rows</w>
cor dless</w>
coordin ate</w>
contempla tin</w>
con sole</w>
competit or</w>
comp tons</w>
comp ound</w>
colle ctor</w>
colle cted</w>
cola des</w>
col trane</w>
coa stal</w>
co median</w>
clon ed</w>
clo wnin</w>
cli pped</w>
cler k</w>
class room</w>
cla ps</w>
cke ty</w>
cir c
chu ckle</w>
chri sts</w>
choo sy</w>
cho ker</w>
child rens</w>
chi efs</w>
champi onship</w>
challen ger</w>
cha milli</w>
cha ka</w>
ch an</w>
cave man</w>
casu alty</w>
care less</w>
car dboard</w>
capa city</w>
can did</w>
can aries</w>
calor ies</w>
ca sed</w>
ca pp
ca i
ca bo</w>
c pr</w>
c p</w>
c mere</w>
c mb</w>
bus es</w>
burgla r</w>
bur r</w>
brui ses</w>
briti sh</w>
brea thless</w>
brea kable</w>
bra ves</w>
bour bon</w>
bou ti
bott led</w>
boo kin</w>
bon kers</w>
bon ed</w>
bo on
bo logna</w>
bo gart</w>
bo b
blood stream</w>
black jack</w>
bl ins</w>
beni hana</w>
be cky</w>
be be</w>
base line</w>
bar ba
bapti ze</w>
band wagon</w>
ba y
ba tty</w>
b bling</w>
aw wright</w>
avi on</w>
au da
att end</w>
aspir in</w>
are tha</w>
ar ily</w>
app renti
app le
app alled</w>
any how</w>
annu al</w>
and erson</w>
an ys</w>
amig o</w>
am ps</w>
am is</w>
ai ms</w>
af fairs</w>
advi sed</w>
ada p
ac comp
ac colades</w>
abus ive</w>
ab do
a woke</w>
50 4</w>
3 4</w>
200 5</w>
2 13</w>
10 3</w>
1 16</w>
zi enza</w>
ze ls</w>
yyyy yyyy
youknowhati mean</w>
yo ke</w>
ya le</w>
ya ki</w>
y ton</w>
x ton</w>
x on</w>
wra pping</w>
wor k
wolver ine</w>
wit ch
willi am</w>
wif i</w>
wi l</w>
wi fe
wi de
whisp erin</w>
wha ddup</w>
wa way</w>
wa ka</w>
w wn</w>
vul ner
volunte er</w>
vo wels</w>
vict ori
ver in</w>
val ues</w>
vaca y</w>
va tos</w>
v itz</w>
v c
v ary</w>
us er</w>
un told</w>
un marked</w>
un familiar</w>
un chy</w>
un breakable</w>
u pro
u fo</w>
u ck</w>
tu tu</w>
trin i
trini dad</w>
tri bes</w>
tri angle</w>
tra itors</w>
tra inin</w>
tra e</w>
tra ctor</w>
tra cked</w>
toun ge</w>
to tem</w>
to m
tit ive</w>
tit an</w>
ti mb</w>
thr ones</w>
thorough ly</w>
tho tty</w>
thin gll</w>
techni cal</w>
te tris</w>
tax in</w>
tar dy</w>
tane ous</w>
tal ou
ta sting</w>
ta ping</w>
t reach</w>
t down</w>
syrin ges</w>
swee tie</w>
swea rin</w>
super fly</w>
super b</w>
summ on</w>
sub stitute</w>
su ms</w>
stu n</w>
stro ller</w>
stor y
sti e</w>
sti ckers</w>
stewar t</w>
ste lla</w>
sta tin</w>
sta cy</w>
ssi c</w>
spon ge</w>
splur gin</w>
spa wn</w>
spa m</w>
south west</w>
sou ven
soo woo</w>
soar in</w>
so men</w>
so les</w>
so cked</w>
so bri
sni pes</w>
sme lly</w>
slin ger</w>
sli mes</w>
sli ces</w>
sla uson</w>
sla te</w>
skyscra pers</w>
skyscra per</w>
skee zer</w>
ska tes</w>
sin ned</w>
sin ga
simi lac</w>
sil ky</w>
sig nature</w>
sicken in</w>
si ren</w>
si ded</w>
sho cking</w>
sho cker</w>
shee sh</w>
shan ks</w>
sha ded</w>
sex ing</w>
ser vant</w>
sen su
secon dary</w>
scul p
scru bs</w>
scen ted</w>
scar a</w>
scan ners</w>
samura i</w>
sa lly</w>
rout es</w>
room mate</w>
ro s
ro lex
ro gers</w>
rit al
rin k</w>
ri ver
ri d
ri ca</w>
ri a</w>
repen tance</w>
repea ted</w>
regi stered</w>
refer ence</w>
red der</w>
rebelli ous</w>
rea ls</w>
re g</w>
re cycle</w>
re cover</w>
re cent</w>
rai ded</w>
ra ven</w>
r ound
qu ittin</w>
q ae
qae da</w>
pun ished</w>
pu shers</w>
provi ding</w>
prin ted</w>
pre par
prai sing</w>
pp ings</w>
pou ch</w>
pos sum</w>
por tions</w>
por cu
pola roid</w>
po tter</w>
po sterous</w>
po ppers</w>
plan tation</w>
pla sma</w>
pit a</w>
pic tured</w>
pi mple</w>
pi ll
pho bic</w>
pharma ce
penitenti aries</w>
pe ons</w>
pe bbles</w>
par k
paper work</w>
pan ty
pa zienza</w>
pa ll
pa geant</w>
p low</w>
over stand</w>
over look</w>
over kill</w>
out a</w>
oun s</w>
oug hest</w>
organi zation</w>
oppo sites</w>
off spring</w>
nu tr
no zzle</w>
no x</w>
ni er</w>
ni cky</w>
neu ro
nazare th</w>
nar cos</w>
nar ci
narci ssi
na sal</w>
n u</w>
n eva
neva da</w>
my stic</w>
mul sanne</w>
mu to
mu fa
mon itor</w>
mobi les</w>
mo wer</w>
mo th</w>
mo i</w>
mo ckery</w>
mind set</w>
min y</w>
min ts</w>
min din</w>
milwau kee</w>
mig non</w>
mi sin
mer rier</w>
mechan ical</w>
materi ali
masqu era
maser atis</w>
marke ts</w>
mar in
man go</w>
mag nets</w>
ma scara</w>
ma h</w>
m less</w>
lumber jack</w>
loo k
lock jaw</w>
lo cated</w>
lo bsters</w>
lo an
lik wit</w>
light weight</w>
lig ans</w>
life less</w>
lif ts</w>
li zing</w>
li mpin</w>
li ga
li cky</w>
less ness</w>
leop ard</w>
lea ked</w>
le ban
labe lled</w>
la tter</w>
la tch</w>
la sso</w>
la d</w>
l z</w>
l c</w>
kur tis</w>
kri zz</w>
king ston</w>
kin der
kinder gar
kick back</w>
kanga roo</w>
k kas</w>
k ittens</w>
jo dy</w>
jo de
jode ci</w>
jer z</w>
jan go</w>
ja mmy</w>
j usto</w>
j ing</w>
iti mate</w>
is ons</w>
is is</w>
irrit ating</w>
infe ction</w>
in jury</w>
i cally</w>
i ac</w>
hypnoti ze</w>
hy phy</w>
hy bri
hust les</w>
hun gover</w>
hu mming</w>
hu blot</w>
hop scotch</w>
hoop ty</w>
hilla ry</w>
hiba chi</w>
hi cc
hicc up</w>
her ring
henne sey</w>
hell raiser</w>
head shots</w>
hea ls</w>
hard headed</w>
hand shake</w>
hand outs</w>
hair cut</w>
ha z
h itch</w>
h ank</w>
guar ded</w>
gu m
govern ments</w>
god dammit</w>
go ats</w>
gla mor
gira ffe</w>
gir ly</w>
gir lie</w>
gen itals</w>
ga te
ga spin</w>
g shot</w>
g rub</w>
g ps</w>
g ous</w>
g l
for real</w>
fo en
foen em</w>
fn f</w>
flin ch</w>
fla wed</w>
fla mbo
fir ma
fine ssing</w>
fine ment</w>
fee zy</w>
fear in</w>
fea ther
fa t
f ainted</w>
extra terrestrial</w>
explo sion</w>
explo si
expla ins</w>
ex pre
evi dently</w>
ev ade</w>
ery kah</w>
ery day</w>
erup tion</w>
erry body</w>
er sll</w>
er ra</w>
en shaw</w>
en i</w>
emplo y</w>
em bedded</w>
el ed</w>
edu cate</w>
ea d</w>
e th
e states</w>
dyna mic</w>
dumb in</w>
du o</w>
du ce</w>
dru mming</w>
dri ps</w>
dran ks</w>
dra gons</w>
dra gging</w>
do per</w>
dis solve</w>
dimen sions</w>
diabo lical</w>
di fied</w>
di ced</w>
deter gent</w>
destro ying</w>
deser ted</w>
der man</w>
deca des</w>
dan ces</w>
dai sies</w>
d ms</w>
d jango</w>
cur sive</w>
cup board</w>
cubi cle</w>
cu r</w>
cri sco</w>
cree py</w>
crea tin</w>
cre ole</w>
cra te</w>
cr enshaw</w>
cr ane</w>
contro ls</w>
contra ry</w>
contra di
consu mers</w>
con sti
com posed</w>
com pi
co ven
co sign</w>
co li
co d</w>
clean se</w>
cla mation</w>
choke hold</w>
chin ky</w>
chi c</w>
che wing</w>
che ster</w>
char ter</w>
chapp elle</w>
chang er</w>
chandeli ers</w>
challen gers</w>
cathe dra
carni v
carib bean</w>
car ries</w>
can talou
can al</w>
bu mble
brun ch</w>
bro ther
brit ches</w>
bri ck
bra id</w>
boo stin</w>
boo sters</w>
body guards</w>
bla ming</w>
bl u</w>
biz nite</w>
birth days</w>
bi zzy</w>
bi o</w>
bi lities</w>
bi as
bever age</w>
belve dere</w>
bee pin</w>
beau coup</w>
bea k</w>
be yotch</w>
be longings</w>
bar red</w>
bar nes</w>
bank rupt</w>
ba sin</w>
ba s</w>
ba mas</w>
ba de</w>
b ani
aven tador</w>
aton ement</w>
assu ming</w>
assi stant</w>
ara bian</w>
ar test</w>
ar range</w>
apprenti ce</w>
app eared</w>
answer ing</w>
announ cement</w>
anno yed</w>
allowan ce</w>
alli ance</w>
alcoholi sm</w>
alcoholi cs</w>
agree ment</w>
afro s</w>
affili ation</w>
af g
af for
ad mini
accomp lish</w>
ab du
a zz</w>
a wo
a par
a bel</w>
6 1</w>
50 k</w>
4 x</w>
19 88</w>
19 7
10 6</w>
0 4</w>
you uuu</w>
yon ara</w>
ya wnin</w>
y ville</w>
wrin kle</w>
wreck less</w>
wobble ty</w>
whee lin</w>
wh ining</w>
wee dman</w>
wea ken</w>
[...]
